// Temperature Prediction Model - TinyML 
// Auto-generated file - Do not edit manually
// Model trained on AHT20 + BMP280 sensor data

#ifndef TEMPERATURE_MODEL_H
#define TEMPERATURE_MODEL_H

// Model information
#define WINDOW_SIZE 10
#define NUM_FEATURES 4
#define NUM_HORIZONS 3

// Feature names
const char* feature_names[] = {
    "Temp_AHT20_C",
    "Umid_AHT20_pct",
    "Temp_BMP280_C",
    "Press_BMP280_hPa"
};

// Horizon names
const char* horizon_names[] = {
    "5 minutes",
    "10 minutes",
    "15 minutes"
};

const unsigned char temperature_model[] = {
  0x1c, 0x00, 0x00, 0x00, 0x54, 0x46, 0x4c, 0x33, 0x14, 0x00, 0x20, 0x00, 
  0x1c, 0x00, 0x18, 0x00, 0x14, 0x00, 0x10, 0x00, 0x0c, 0x00, 0x00, 0x00, 
  0x08, 0x00, 0x04, 0x00, 0x14, 0x00, 0x00, 0x00, 0x1c, 0x00, 0x00, 0x00, 
  0x8c, 0x00, 0x00, 0x00, 0xe4, 0x00, 0x00, 0x00, 0x60, 0x21, 0x00, 0x00, 
  0x70, 0x21, 0x00, 0x00, 0x84, 0x2e, 0x00, 0x00, 0x03, 0x00, 0x00, 0x00, 
  0x01, 0x00, 0x00, 0x00, 0x04, 0x00, 0x00, 0x00, 0xf6, 0xdc, 0xff, 0xff, 
  0x0c, 0x00, 0x00, 0x00, 0x1c, 0x00, 0x00, 0x00, 0x3c, 0x00, 0x00, 0x00, 
  0x0f, 0x00, 0x00, 0x00, 0x73, 0x65, 0x72, 0x76, 0x69, 0x6e, 0x67, 0x5f, 
  0x64, 0x65, 0x66, 0x61, 0x75, 0x6c, 0x74, 0x00, 0x01, 0x00, 0x00, 0x00, 
  0x04, 0x00, 0x00, 0x00, 0x90, 0xff, 0xff, 0xff, 0x15, 0x00, 0x00, 0x00, 
  0x04, 0x00, 0x00, 0x00, 0x08, 0x00, 0x00, 0x00, 0x6f, 0x75, 0x74, 0x70, 
  0x75, 0x74, 0x5f, 0x30, 0x00, 0x00, 0x00, 0x00, 0x01, 0x00, 0x00, 0x00, 
  0x04, 0x00, 0x00, 0x00, 0x82, 0xdf, 0xff, 0xff, 0x04, 0x00, 0x00, 0x00, 
  0x0e, 0x00, 0x00, 0x00, 0x6b, 0x65, 0x72, 0x61, 0x73, 0x5f, 0x74, 0x65, 
  0x6e, 0x73, 0x6f, 0x72, 0x5f, 0x38, 0x00, 0x00, 0x02, 0x00, 0x00, 0x00, 
  0x34, 0x00, 0x00, 0x00, 0x04, 0x00, 0x00, 0x00, 0xdc, 0xff, 0xff, 0xff, 
  0x18, 0x00, 0x00, 0x00, 0x04, 0x00, 0x00, 0x00, 0x13, 0x00, 0x00, 0x00, 
  0x43, 0x4f, 0x4e, 0x56, 0x45, 0x52, 0x53, 0x49, 0x4f, 0x4e, 0x5f, 0x4d, 
  0x45, 0x54, 0x41, 0x44, 0x41, 0x54, 0x41, 0x00, 0x08, 0x00, 0x0c, 0x00, 
  0x08, 0x00, 0x04, 0x00, 0x08, 0x00, 0x00, 0x00, 0x17, 0x00, 0x00, 0x00, 
  0x04, 0x00, 0x00, 0x00, 0x13, 0x00, 0x00, 0x00, 0x6d, 0x69, 0x6e, 0x5f, 
  0x72, 0x75, 0x6e, 0x74, 0x69, 0x6d, 0x65, 0x5f, 0x76, 0x65, 0x72, 0x73, 
  0x69, 0x6f, 0x6e, 0x00, 0x19, 0x00, 0x00, 0x00, 0x78, 0x20, 0x00, 0x00, 
  0x70, 0x20, 0x00, 0x00, 0x00, 0x20, 0x00, 0x00, 0xa8, 0x1f, 0x00, 0x00, 
  0x38, 0x1f, 0x00, 0x00, 0x1c, 0x1f, 0x00, 0x00, 0x00, 0x1f, 0x00, 0x00, 
  0xe4, 0x1e, 0x00, 0x00, 0xd4, 0x0c, 0x00, 0x00, 0x44, 0x08, 0x00, 0x00, 
  0x14, 0x07, 0x00, 0x00, 0x04, 0x01, 0x00, 0x00, 0xf0, 0x00, 0x00, 0x00, 
  0xdc, 0x00, 0x00, 0x00, 0xd4, 0x00, 0x00, 0x00, 0xcc, 0x00, 0x00, 0x00, 
  0xc4, 0x00, 0x00, 0x00, 0xbc, 0x00, 0x00, 0x00, 0xb4, 0x00, 0x00, 0x00, 
  0xac, 0x00, 0x00, 0x00, 0xa4, 0x00, 0x00, 0x00, 0x9c, 0x00, 0x00, 0x00, 
  0x94, 0x00, 0x00, 0x00, 0x74, 0x00, 0x00, 0x00, 0x04, 0x00, 0x00, 0x00, 
  0x62, 0xe0, 0xff, 0xff, 0x04, 0x00, 0x00, 0x00, 0x60, 0x00, 0x00, 0x00, 
  0x10, 0x00, 0x00, 0x00, 0x00, 0x00, 0x00, 0x00, 0x08, 0x00, 0x0e, 0x00, 
  0x08, 0x00, 0x04, 0x00, 0x08, 0x00, 0x00, 0x00, 0x10, 0x00, 0x00, 0x00, 
  0x24, 0x00, 0x00, 0x00, 0x00, 0x00, 0x06, 0x00, 0x08, 0x00, 0x04, 0x00, 
  0x06, 0x00, 0x00, 0x00, 0x04, 0x00, 0x00, 0x00, 0x00, 0x00, 0x00, 0x00, 
  0x0c, 0x00, 0x18, 0x00, 0x14, 0x00, 0x10, 0x00, 0x0c, 0x00, 0x04, 0x00, 
  0x0c, 0x00, 0x00, 0x00, 0x21, 0xb0, 0xa3, 0xa1, 0x57, 0xb5, 0xcd, 0xcd, 
  0x02, 0x00, 0x00, 0x00, 0x02, 0x00, 0x00, 0x00, 0x04, 0x00, 0x00, 0x00, 
  0x06, 0x00, 0x00, 0x00, 0x32, 0x2e, 0x32, 0x30, 0x2e, 0x30, 0x00, 0x00, 
  0xce, 0xe0, 0xff, 0xff, 0x04, 0x00, 0x00, 0x00, 0x10, 0x00, 0x00, 0x00, 
  0x31, 0x2e, 0x31, 0x30, 0x2e, 0x30, 0x00, 0x00, 0x00, 0x00, 0x00, 0x00, 
  0x00, 0x00, 0x00, 0x00, 0x84, 0xd3, 0xff, 0xff, 0x88, 0xd3, 0xff, 0xff, 
  0x8c, 0xd3, 0xff, 0xff, 0x90, 0xd3, 0xff, 0xff, 0x94, 0xd3, 0xff, 0xff, 
  0x98, 0xd3, 0xff, 0xff, 0x9c, 0xd3, 0xff, 0xff, 0xa0, 0xd3, 0xff, 0xff, 
  0xa4, 0xd3, 0xff, 0xff, 0x0e, 0xe1, 0xff, 0xff, 0x04, 0x00, 0x00, 0x00, 
  0x04, 0x00, 0x00, 0x00, 0x01, 0x00, 0x00, 0x00, 0x1e, 0xe1, 0xff, 0xff, 
  0x04, 0x00, 0x00, 0x00, 0x04, 0x00, 0x00, 0x00, 0xfd, 0xff, 0xff, 0xff, 
  0x2e, 0xe1, 0xff, 0xff, 0x04, 0x00, 0x00, 0x00, 0x00, 0x06, 0x00, 0x00, 
  0x21, 0x0d, 0x1e, 0x3e, 0x37, 0x1a, 0x39, 0xbe, 0x97, 0xf9, 0x64, 0xbd, 
  0x7d, 0x79, 0xd4, 0x3b, 0x01, 0xde, 0xdd, 0xb7, 0xce, 0x2e, 0xa9, 0xbd, 
  0x18, 0x37, 0x3f, 0xbc, 0x49, 0x62, 0x12, 0x3d, 0x17, 0xac, 0x12, 0x3e, 
  0x5d, 0x12, 0xeb, 0xbc, 0xcc, 0xfe, 0x87, 0xbe, 0x41, 0xfc, 0x74, 0xbd, 
  0x61, 0x97, 0x19, 0x3d, 0xc1, 0x2f, 0xc3, 0x3d, 0x71, 0xbe, 0x77, 0x3e, 
  0xc5, 0xec, 0x98, 0xbe, 0x3a, 0x6d, 0x82, 0xbc, 0xb0, 0x83, 0x67, 0x3c, 
  0x78, 0x03, 0x67, 0xbc, 0x1c, 0x01, 0xcd, 0xbc, 0x19, 0xca, 0x82, 0x0b, 
  0xfb, 0xc2, 0x60, 0xbc, 0xa1, 0xa7, 0x69, 0xbc, 0x30, 0xc5, 0x42, 0xbc, 
  0xae, 0xcc, 0x5d, 0xbc, 0x18, 0x0a, 0x68, 0xbc, 0xbf, 0x7a, 0x8a, 0xbc, 
  0x6c, 0x6f, 0xdd, 0x3b, 0xb4, 0x17, 0x40, 0xbc, 0xdd, 0x21, 0x51, 0xbc, 
  0x8c, 0xb0, 0x61, 0xbc, 0x06, 0x89, 0x3a, 0xbc, 0x2b, 0x13, 0x87, 0x3e, 
  0x41, 0x07, 0xad, 0x3e, 0x9e, 0x06, 0xe8, 0x3d, 0xd9, 0x45, 0xc0, 0x3e, 
  0x54, 0x58, 0x4a, 0xbc, 0xc3, 0xe0, 0x0d, 0xbe, 0xe8, 0xeb, 0xb8, 0x3e, 
  0x67, 0x22, 0x59, 0xbe, 0xfc, 0xb5, 0xb9, 0x3e, 0xf6, 0x59, 0x1e, 0x3e, 
  0x10, 0x4a, 0x44, 0xbe, 0x94, 0x2c, 0x40, 0xbe, 0x94, 0xf0, 0xba, 0x3e, 
  0xc5, 0x57, 0x8c, 0x3e, 0x98, 0xf6, 0xbf, 0x3e, 0xf9, 0x08, 0x0f, 0x3f, 
  0xf0, 0x1c, 0x28, 0xbe, 0x10, 0x7d, 0x75, 0x3d, 0x07, 0x33, 0xb3, 0xbc, 
  0x63, 0xfc, 0xcd, 0xbb, 0xf5, 0x7e, 0x0d, 0xbc, 0x19, 0x8c, 0x92, 0x3d, 
  0x7d, 0x65, 0xb9, 0xbd, 0xd2, 0xea, 0xc5, 0xbd, 0xba, 0xa4, 0xc3, 0xbd, 
  0xb5, 0xad, 0x8b, 0x3e, 0xac, 0x81, 0x06, 0x3e, 0xbc, 0xb8, 0x1f, 0xbe, 
  0x57, 0x90, 0x86, 0xbe, 0x01, 0xe2, 0xe7, 0xbc, 0x81, 0x4e, 0xe3, 0xbd, 
  0x73, 0x72, 0xe8, 0x3d, 0xa9, 0xf3, 0xf0, 0xbd, 0x06, 0xe5, 0xf6, 0x3e, 
  0x30, 0xa8, 0x2a, 0x3d, 0xa8, 0xa6, 0xb9, 0x3e, 0xe9, 0x60, 0x59, 0xbb, 
  0xa7, 0x38, 0xa2, 0x3e, 0x13, 0x0e, 0x55, 0x3e, 0xbc, 0x2b, 0x3c, 0xbe, 
  0x30, 0x0c, 0x3b, 0x3e, 0x1d, 0x61, 0x71, 0x3d, 0xad, 0xdd, 0xd7, 0x3e, 
  0x88, 0xed, 0x17, 0x3e, 0xc5, 0x0c, 0x7c, 0xbe, 0x20, 0x3b, 0x0d, 0x3e, 
  0xc1, 0x12, 0xcb, 0x3d, 0x68, 0x26, 0xe5, 0x3e, 0x71, 0x01, 0x6e, 0x3e, 
  0x87, 0x05, 0xe9, 0x3e, 0xcd, 0xc2, 0xc2, 0x3c, 0x36, 0xba, 0x04, 0x3f, 
  0xda, 0x9c, 0x1f, 0x3a, 0xca, 0xaa, 0xdb, 0x3e, 0xca, 0x13, 0x2e, 0xbe, 
  0x85, 0x24, 0x1f, 0xbf, 0x44, 0x31, 0xb8, 0x3d, 0x0e, 0x61, 0x8c, 0x3e, 
  0xda, 0x79, 0x37, 0xbc, 0xcd, 0x35, 0x64, 0xbd, 0xac, 0x58, 0xf4, 0xbd, 
  0x90, 0x8c, 0xe3, 0x3e, 0x98, 0x21, 0x48, 0x3e, 0x67, 0xfd, 0xc8, 0x3d, 
  0xbc, 0x52, 0x98, 0xbe, 0xea, 0x2f, 0x24, 0x3c, 0xff, 0xe4, 0xfe, 0x3c, 
  0xfe, 0x44, 0x73, 0x3e, 0x3f, 0x33, 0x11, 0xbc, 0x9e, 0xf4, 0x04, 0x3c, 
  0xb1, 0xd9, 0x7b, 0xbd, 0xf4, 0x26, 0x7a, 0x3e, 0x20, 0x75, 0x28, 0xbe, 
  0x40, 0xf0, 0x24, 0x3d, 0x14, 0x56, 0x20, 0xbe, 0x10, 0x76, 0x7d, 0x3e, 
  0x86, 0xa6, 0xd6, 0x3c, 0xea, 0x96, 0x35, 0xbe, 0xfd, 0xdd, 0x30, 0x3d, 
  0x6b, 0x06, 0x9e, 0x3d, 0x29, 0x81, 0x98, 0xbd, 0xa6, 0xda, 0xbe, 0xbd, 
  0xa6, 0x94, 0x61, 0xbe, 0x0a, 0x28, 0x3f, 0xbe, 0xad, 0xa5, 0x89, 0xb1, 
  0x7c, 0x71, 0x4e, 0x3d, 0xf8, 0xd6, 0x32, 0xbe, 0x80, 0x65, 0x10, 0xbe, 
  0x00, 0x53, 0x3c, 0x3e, 0xbd, 0x1a, 0x40, 0x3e, 0xd6, 0x2b, 0x9e, 0xbd, 
  0x57, 0x01, 0xf5, 0x3d, 0x78, 0xc6, 0xa2, 0x3d, 0x9f, 0xbd, 0x70, 0x3d, 
  0xb3, 0xff, 0x4b, 0x3e, 0xb9, 0x88, 0x54, 0x3e, 0x75, 0x75, 0xe9, 0x3e, 
  0x72, 0xcb, 0x0b, 0x3f, 0xc3, 0x24, 0x87, 0x3e, 0x10, 0x5f, 0xd7, 0x3c, 
  0x40, 0xbf, 0x28, 0x3a, 0x2e, 0xb2, 0xb5, 0x3e, 0x08, 0xb5, 0xcd, 0x3e, 
  0x36, 0x0c, 0x25, 0xbf, 0x6f, 0x67, 0xe8, 0xbd, 0x68, 0xfb, 0x5d, 0x3e, 
  0x37, 0x0d, 0xb2, 0x3e, 0xe5, 0xd9, 0x90, 0x3d, 0xa2, 0x29, 0x2a, 0xbe, 
  0xb3, 0x64, 0xa7, 0x3d, 0xe7, 0xe4, 0xc4, 0x3e, 0x52, 0xbb, 0xa5, 0x3c, 
  0x97, 0x82, 0x19, 0xbe, 0x32, 0xaf, 0x64, 0x3e, 0xeb, 0x29, 0xa2, 0xbd, 
  0x7e, 0x91, 0x8e, 0xbe, 0x21, 0xce, 0xe8, 0x38, 0x00, 0xea, 0x81, 0x3b, 
  0xce, 0x57, 0x8e, 0x3c, 0x7c, 0xcc, 0xc3, 0x3d, 0xf1, 0xc6, 0x84, 0xbb, 
  0x13, 0x18, 0x8b, 0xbd, 0xd1, 0x9e, 0x8f, 0xbd, 0xac, 0xd3, 0x84, 0x3e, 
  0xa5, 0x31, 0xb0, 0xbd, 0x1b, 0x25, 0x48, 0x3e, 0x2d, 0xe9, 0x4e, 0x3d, 
  0x89, 0x28, 0xae, 0x3d, 0x6f, 0x90, 0xf3, 0xbd, 0x5b, 0x06, 0x8c, 0xbd, 
  0xc6, 0xf1, 0xa8, 0xbc, 0xeb, 0xcd, 0x23, 0x3e, 0x41, 0x55, 0xb3, 0x9e, 
  0xde, 0x39, 0x29, 0x3d, 0xe4, 0x4d, 0x10, 0xbd, 0xb9, 0x42, 0xbc, 0xbd, 
  0xd0, 0x9a, 0x3a, 0x3d, 0x70, 0x66, 0x33, 0xbd, 0x0e, 0xfa, 0x0a, 0xbd, 
  0x32, 0xd0, 0x70, 0x3e, 0x29, 0xcd, 0x1b, 0x3d, 0xaa, 0x8e, 0x97, 0x3d, 
  0x59, 0xa0, 0xae, 0xbc, 0x22, 0x2c, 0xc7, 0xbd, 0x1d, 0x04, 0xea, 0x3a, 
  0x83, 0xdb, 0x06, 0xbd, 0x96, 0x5a, 0x00, 0x3f, 0x49, 0x2f, 0x97, 0x3e, 
  0x02, 0x59, 0x1d, 0x3a, 0xb3, 0x15, 0x08, 0x3e, 0x25, 0xc9, 0xa1, 0x3e, 
  0x01, 0x84, 0x1e, 0xbf, 0xbc, 0x5e, 0xf6, 0xbb, 0x7f, 0x86, 0x0b, 0x3f, 
  0x8c, 0xe0, 0xe8, 0x3e, 0x88, 0x85, 0x45, 0xbd, 0xa2, 0x39, 0xad, 0x3d, 
  0x07, 0x9b, 0xc6, 0x3e, 0xee, 0xb7, 0x49, 0x3e, 0xf4, 0xb7, 0x75, 0x3c, 
  0x6f, 0x9e, 0x0a, 0xbd, 0x35, 0xd8, 0x8c, 0x3b, 0xe2, 0xf2, 0x9c, 0x3d, 
  0x4e, 0xea, 0x0c, 0x3f, 0xaf, 0x13, 0x2a, 0x3a, 0xdd, 0x1f, 0x9c, 0x3e, 
  0x54, 0xb9, 0x84, 0x3d, 0x60, 0xfd, 0x07, 0xbe, 0xb5, 0x17, 0x1a, 0xbe, 
  0x89, 0x59, 0xd9, 0xbc, 0x42, 0x78, 0xb8, 0x3e, 0x27, 0x0e, 0x13, 0x3c, 
  0x18, 0x29, 0x71, 0x3e, 0xd5, 0xb0, 0x06, 0xbe, 0x59, 0x73, 0x11, 0x3f, 
  0x7d, 0x48, 0xc7, 0x3e, 0x7d, 0xa1, 0x8a, 0xbe, 0xd3, 0x1b, 0xd5, 0xbc, 
  0x7f, 0x19, 0x9b, 0xbd, 0x93, 0xdc, 0xd8, 0xbd, 0x39, 0x22, 0xe5, 0xba, 
  0xa9, 0xa2, 0x3c, 0xbe, 0x95, 0x07, 0xc7, 0xbd, 0xb6, 0x0b, 0x0e, 0x3e, 
  0xf0, 0x48, 0x2b, 0x3c, 0x30, 0x1b, 0xa4, 0x3b, 0x55, 0xf2, 0x0c, 0xbd, 
  0x3d, 0x79, 0x53, 0x3e, 0x2f, 0x07, 0x87, 0x3e, 0x64, 0xfc, 0xcf, 0xbc, 
  0x8d, 0xc9, 0x50, 0x3d, 0x3b, 0x73, 0x18, 0xbe, 0x09, 0x7f, 0x70, 0x3e, 
  0x3a, 0x5f, 0x8a, 0x3e, 0xc3, 0x49, 0x0f, 0x3f, 0xd1, 0x79, 0x02, 0xbe, 
  0xb4, 0x1f, 0x1f, 0x3b, 0x9d, 0xf5, 0x97, 0x3e, 0x56, 0xb2, 0x9b, 0x3e, 
  0x3e, 0x70, 0x84, 0xbe, 0x5b, 0x75, 0x48, 0xbd, 0xd9, 0x62, 0xfa, 0xbb, 
  0xf9, 0x97, 0xc7, 0x3d, 0x0e, 0xb9, 0x8e, 0x3d, 0x98, 0xf9, 0x68, 0x3d, 
  0x19, 0x41, 0x48, 0x3c, 0xb2, 0x97, 0x9b, 0x3e, 0x9a, 0x40, 0xc0, 0x3e, 
  0x1e, 0x2e, 0x56, 0xbd, 0x3b, 0xf8, 0x82, 0xbc, 0xeb, 0x22, 0x5b, 0xbc, 
  0xad, 0xd9, 0x50, 0x3e, 0x81, 0x01, 0x2c, 0x2d, 0x7d, 0x67, 0x30, 0xbc, 
  0x71, 0x78, 0x58, 0xbc, 0x3b, 0x12, 0xb8, 0xbb, 0x99, 0x94, 0xc6, 0xbb, 
  0x46, 0x9e, 0x5a, 0xbc, 0xdd, 0xc9, 0xa6, 0xbd, 0xe6, 0x7f, 0x4d, 0x3d, 
  0x99, 0x2a, 0x34, 0xbe, 0xe4, 0xc8, 0x32, 0xbc, 0xeb, 0x02, 0x97, 0xbc, 
  0xd2, 0xb2, 0xfc, 0x3d, 0xb0, 0xb0, 0x9b, 0x3e, 0x9f, 0xbb, 0xe4, 0x3e, 
  0xf4, 0x96, 0x8f, 0xbe, 0x7f, 0xcc, 0xc5, 0x3e, 0x87, 0xbc, 0x06, 0xbd, 
  0x74, 0xa5, 0x8a, 0x3e, 0x3f, 0x18, 0xbf, 0xbc, 0xff, 0x92, 0xcc, 0xbe, 
  0x2a, 0x5f, 0x4e, 0x3e, 0x45, 0xd3, 0x32, 0xbe, 0x6b, 0xdb, 0x77, 0x3e, 
  0xfc, 0x38, 0xf9, 0x3d, 0x30, 0xa3, 0xdc, 0x3e, 0xff, 0x77, 0xc5, 0x3e, 
  0x65, 0xc9, 0x15, 0xbe, 0x3c, 0x63, 0x10, 0x3f, 0x0a, 0x4d, 0x8f, 0xbd, 
  0xe7, 0xee, 0x3b, 0xbb, 0xe0, 0x6a, 0x8a, 0xbd, 0x1f, 0x84, 0xea, 0xbd, 
  0x49, 0xff, 0x24, 0xb9, 0x4e, 0xda, 0x4a, 0xbc, 0xd4, 0xe1, 0xc9, 0xbc, 
  0xd1, 0xb9, 0x82, 0xbc, 0xe5, 0xa6, 0x52, 0xbd, 0x9b, 0x48, 0xbb, 0x3d, 
  0x16, 0x9d, 0x40, 0x3e, 0x4c, 0x6e, 0x93, 0xbd, 0xe1, 0x88, 0x90, 0x3c, 
  0x91, 0xfe, 0xe1, 0xbc, 0x2b, 0xcf, 0xe7, 0xbb, 0xf6, 0xab, 0xc5, 0xbc, 
  0x4f, 0xe7, 0xcd, 0x3e, 0x6e, 0x0b, 0x66, 0x3e, 0x5b, 0xe9, 0x7d, 0x3e, 
  0x80, 0x3c, 0x3f, 0xbd, 0x69, 0x57, 0x23, 0xbb, 0x5b, 0xf2, 0x09, 0x3f, 
  0x72, 0xed, 0xa3, 0xbc, 0xe1, 0x81, 0x1c, 0xbf, 0x0d, 0x81, 0x56, 0x3e, 
  0xc6, 0xa6, 0x0a, 0x3f, 0x2d, 0xc3, 0x38, 0x3d, 0x3e, 0x7f, 0x59, 0xbc, 
  0x35, 0x7d, 0xad, 0x3e, 0x6d, 0x6b, 0x0c, 0xbe, 0x97, 0xaf, 0x8b, 0x3e, 
  0xc6, 0x97, 0x30, 0x3d, 0x81, 0x4d, 0xb8, 0x3d, 0xf5, 0x3d, 0x86, 0x3e, 
  0x6e, 0x58, 0xb9, 0x3e, 0x82, 0xbf, 0xb8, 0x3c, 0x33, 0x50, 0x06, 0x3a, 
  0xea, 0xb8, 0xbb, 0x3e, 0xc3, 0xe5, 0xd4, 0x3e, 0x2c, 0x40, 0x0b, 0xbf, 
  0xff, 0xe6, 0x8b, 0x3d, 0x58, 0xa0, 0x9a, 0x3c, 0x40, 0xc3, 0x28, 0xbe, 
  0x02, 0x40, 0x1f, 0xbe, 0xc6, 0x4b, 0x8b, 0x3e, 0xc8, 0x3d, 0xd9, 0x3e, 
  0xbf, 0xce, 0x23, 0x3e, 0x97, 0xef, 0x10, 0xbe, 0x1d, 0x5b, 0xc3, 0x3e, 
  0x41, 0xb1, 0x2d, 0x3e, 0xd1, 0x2c, 0xad, 0xbd, 0x01, 0x06, 0x92, 0x3e, 
  0xb8, 0xf2, 0x46, 0x3a, 0x8a, 0x8f, 0x64, 0xbe, 0xd1, 0x40, 0xd5, 0x3e, 
  0x99, 0x4d, 0x7a, 0xbe, 0xf1, 0xe2, 0xa8, 0xbc, 0x90, 0xb2, 0xb3, 0x3e, 
  0x62, 0xf0, 0x3e, 0x3e, 0x4d, 0xc8, 0xb7, 0xbd, 0x06, 0x7a, 0x59, 0xbe, 
  0xce, 0x4f, 0x81, 0x3e, 0x07, 0x04, 0xac, 0x3e, 0x26, 0xbb, 0x66, 0xbd, 
  0x33, 0x51, 0x78, 0xbd, 0x1e, 0x59, 0xc6, 0x3e, 0x94, 0xf7, 0x3d, 0x3e, 
  0xd6, 0x09, 0x9f, 0x3e, 0x8a, 0x16, 0x59, 0x3a, 0x46, 0x93, 0x9e, 0x3e, 
  0xab, 0x4f, 0x54, 0xbd, 0x63, 0xba, 0x97, 0xbc, 0xa5, 0xcd, 0x38, 0x3e, 
  0x4b, 0x6d, 0xaf, 0x3d, 0xb4, 0xea, 0xab, 0xbd, 0x03, 0xa1, 0x37, 0xbd, 
  0x0d, 0xb1, 0x50, 0xbd, 0xc5, 0xcd, 0xc1, 0x3e, 0x56, 0x54, 0x1a, 0x3e, 
  0x39, 0x9f, 0x54, 0x3e, 0xb9, 0x52, 0x9b, 0xbe, 0x9e, 0x67, 0x2e, 0xbe, 
  0x26, 0x6e, 0x7f, 0xbe, 0x37, 0xc3, 0x71, 0x3e, 0x46, 0x23, 0xeb, 0x39, 
  0x64, 0x0b, 0x54, 0x3e, 0xdd, 0xbc, 0x51, 0xbc, 0xd2, 0x25, 0x58, 0xbd, 
  0x67, 0x4f, 0x33, 0x3e, 0xb4, 0x23, 0x03, 0xbe, 0xc1, 0x9f, 0xcd, 0x3c, 
  0xb0, 0xc4, 0x85, 0x3e, 0x06, 0x9d, 0x82, 0xbe, 0xb7, 0xdd, 0x6a, 0x3d, 
  0xdf, 0xac, 0x01, 0x3e, 0xc8, 0x6d, 0x54, 0x3e, 0x94, 0x3a, 0xa8, 0x3e, 
  0xed, 0x8e, 0x8f, 0x3e, 0x5c, 0xb3, 0x9b, 0x3e, 0x90, 0xc9, 0xf0, 0xbd, 
  0x81, 0xdb, 0x0e, 0x3a, 0x8e, 0x3e, 0x00, 0x3f, 0xd1, 0xf6, 0xf2, 0x3e, 
  0xfb, 0x6b, 0x31, 0xbf, 0xe9, 0x1b, 0x05, 0x3f, 0x14, 0x09, 0x09, 0x3d, 
  0x56, 0xb4, 0x62, 0x3e, 0x86, 0x91, 0x37, 0xbe, 0x69, 0x8b, 0xe1, 0x3d, 
  0xeb, 0x32, 0x8a, 0x3e, 0x88, 0x78, 0x96, 0x3e, 0xf3, 0xb3, 0x4a, 0x3d, 
  0x3a, 0xe7, 0xff, 0xff, 0x04, 0x00, 0x00, 0x00, 0x20, 0x01, 0x00, 0x00, 
  0x19, 0x3b, 0xb6, 0xbe, 0x13, 0x4e, 0xa8, 0x3e, 0x76, 0xa7, 0x93, 0x3e, 
  0x0c, 0xcd, 0xa7, 0xbd, 0x26, 0x49, 0xaf, 0x3e, 0x82, 0xf8, 0xbb, 0x3e, 
  0x81, 0xa1, 0x5f, 0xbe, 0xda, 0xf3, 0x1b, 0xbd, 0xcb, 0x94, 0x9d, 0x3e, 
  0x59, 0x14, 0x8e, 0xbe, 0xbe, 0x07, 0x9b, 0xbe, 0x0d, 0x2c, 0xa2, 0x3e, 
  0xe4, 0x50, 0xb0, 0x3e, 0xa0, 0xee, 0x86, 0xbd, 0xf3, 0x04, 0xcf, 0x3e, 
  0x72, 0x03, 0x8e, 0xbe, 0xae, 0x6d, 0xbc, 0x3e, 0xcb, 0x48, 0xb0, 0xbe, 
  0x8e, 0x5d, 0xb7, 0x3e, 0xeb, 0x30, 0xe7, 0x3e, 0xec, 0x7f, 0xc8, 0x3e, 
  0x6e, 0x90, 0xd6, 0x3e, 0x38, 0xb2, 0xca, 0xbe, 0xe8, 0xe6, 0x9b, 0x3e, 
  0xf7, 0x6a, 0x88, 0x3d, 0x55, 0x63, 0xa3, 0xbc, 0x36, 0x42, 0x93, 0x3e, 
  0xd9, 0x1b, 0xae, 0xbe, 0x40, 0xde, 0xae, 0x3e, 0x4f, 0x3d, 0xbb, 0x3e, 
  0xb3, 0xe5, 0xde, 0x3c, 0xbf, 0x39, 0xda, 0xbe, 0x55, 0x11, 0x9d, 0x3e, 
  0x91, 0xba, 0x8a, 0x3d, 0x68, 0xca, 0x46, 0x3e, 0x46, 0xd2, 0xa1, 0x3e, 
  0xc5, 0xdb, 0xaf, 0x3e, 0x7d, 0xc5, 0xcf, 0xbe, 0x1a, 0x59, 0xce, 0x3e, 
  0xcb, 0x3b, 0xaa, 0x3c, 0x12, 0x6d, 0xbc, 0x3e, 0x9c, 0xca, 0xa8, 0x3d, 
  0x45, 0xe3, 0xb6, 0x3e, 0xc4, 0x55, 0xe6, 0x3e, 0xe2, 0x28, 0xc8, 0x3e, 
  0x9c, 0xe9, 0xd5, 0x3e, 0x51, 0xca, 0x8e, 0x3e, 0x3e, 0x62, 0x9b, 0x3e, 
  0x62, 0x0d, 0x5d, 0x3e, 0x27, 0xd9, 0xc9, 0xbe, 0xa3, 0x26, 0x93, 0x3e, 
  0x1a, 0x4e, 0xb5, 0xbe, 0xec, 0x62, 0xae, 0x3e, 0x18, 0x03, 0xbb, 0x3e, 
  0xe3, 0xd9, 0xb7, 0xbe, 0xdf, 0xde, 0xa5, 0x3e, 0xf5, 0xb5, 0x9c, 0x3e, 
  0x93, 0xa2, 0xb1, 0xbe, 0xef, 0xe4, 0x1c, 0x3c, 0x2f, 0xa7, 0xa1, 0x3e, 
  0x6f, 0xc4, 0xaf, 0x3e, 0xd8, 0x09, 0x82, 0x3d, 0x10, 0xf8, 0xcd, 0x3e, 
  0xa8, 0x9e, 0x96, 0xbd, 0x83, 0x0d, 0xbc, 0x3e, 0xab, 0xa9, 0x95, 0x3c, 
  0xfd, 0xa4, 0xb6, 0x3e, 0xdc, 0x4f, 0xe6, 0x3e, 0xdb, 0xf7, 0xc7, 0x3e, 
  0x9e, 0x36, 0xd6, 0x3e, 0x9d, 0x54, 0xd2, 0xbe, 0x83, 0x1b, 0x9b, 0x3e, 
  0x66, 0xe8, 0xff, 0xff, 0x04, 0x00, 0x00, 0x00, 0x80, 0x04, 0x00, 0x00, 
  0x05, 0x50, 0x7d, 0x3c, 0x8a, 0xe7, 0x34, 0xbe, 0xbc, 0x41, 0x1e, 0xbe, 
  0xc9, 0x90, 0x51, 0xbe, 0xd2, 0xcf, 0x93, 0xbc, 0xe2, 0x9d, 0x8a, 0x3e, 
  0x3b, 0xc2, 0xf3, 0x3d, 0x38, 0xac, 0x97, 0x3d, 0xf7, 0x23, 0x4e, 0x3e, 
  0x4a, 0x69, 0x5e, 0xbe, 0x44, 0x4b, 0x1e, 0xbe, 0x4e, 0x2a, 0x10, 0x3e, 
  0x5b, 0x93, 0x65, 0x3e, 0xb8, 0x36, 0x32, 0xbc, 0xa7, 0xef, 0x92, 0x3d, 
  0x62, 0x06, 0xfd, 0x3d, 0x19, 0x70, 0x18, 0xbe, 0x87, 0x99, 0x7a, 0x3e, 
  0xa6, 0x9b, 0x51, 0x3e, 0xf2, 0x17, 0xb7, 0xbd, 0x2b, 0xeb, 0xc4, 0xbc, 
  0x7b, 0x87, 0x01, 0xbe, 0x71, 0x0b, 0xf3, 0xbd, 0xed, 0x1b, 0x15, 0xbd, 
  0xca, 0xbe, 0x96, 0xbb, 0x73, 0xf1, 0xec, 0x3c, 0xed, 0x97, 0x21, 0xbe, 
  0x63, 0x77, 0x47, 0xbe, 0x3e, 0x43, 0x95, 0x3d, 0xb6, 0x1d, 0x78, 0x3e, 
  0x34, 0x8f, 0xf7, 0x3c, 0xe5, 0x1e, 0x94, 0xbd, 0x56, 0x5d, 0xf3, 0xbd, 
  0xf5, 0x3f, 0x1e, 0xbe, 0x32, 0x95, 0x9c, 0x3e, 0xa1, 0xdf, 0x00, 0x3e, 
  0x3f, 0x0b, 0x61, 0x3e, 0x00, 0x72, 0xaf, 0x3b, 0xef, 0xd2, 0x01, 0x3e, 
  0x91, 0xb7, 0xa2, 0xbd, 0x05, 0xf0, 0x27, 0xbe, 0xee, 0x2d, 0x0c, 0xbe, 
  0x97, 0x3b, 0x47, 0xbd, 0x0d, 0x1b, 0x44, 0x3e, 0x7a, 0xca, 0xba, 0xbc, 
  0x48, 0xb0, 0xda, 0x3d, 0x35, 0x4a, 0xf6, 0xbc, 0x87, 0x5d, 0xe2, 0xbd, 
  0x16, 0xe6, 0x5e, 0x3e, 0x19, 0xe1, 0x38, 0xbe, 0x18, 0x46, 0xf6, 0xbd, 
  0xfe, 0x61, 0x0b, 0x3e, 0x00, 0x16, 0x49, 0x3e, 0x4c, 0x0f, 0x23, 0x3e, 
  0xe2, 0x33, 0xfa, 0x3d, 0x73, 0x65, 0x54, 0x3d, 0x75, 0x14, 0xfc, 0xbd, 
  0x42, 0x2e, 0x0f, 0xbe, 0x72, 0x09, 0x30, 0xbe, 0xe6, 0x54, 0x59, 0x3b, 
  0x4c, 0x15, 0x08, 0xbe, 0x2d, 0x24, 0xa2, 0x3c, 0x00, 0xf4, 0x04, 0xbe, 
  0x30, 0x02, 0x08, 0x3e, 0xc6, 0x28, 0x83, 0x3e, 0x76, 0xab, 0xf8, 0x3d, 
  0x6e, 0xea, 0x29, 0x3e, 0xa3, 0x0a, 0x28, 0xbe, 0xbb, 0xd4, 0x0c, 0xbb, 
  0x5a, 0x3c, 0xfd, 0x3d, 0xe4, 0xa2, 0x49, 0x3e, 0xc2, 0xf8, 0x29, 0x3c, 
  0x3d, 0xa5, 0xab, 0xbd, 0x75, 0x53, 0x04, 0x3e, 0x1a, 0xf2, 0xb0, 0x3d, 
  0xea, 0xe5, 0xf6, 0x3d, 0x1c, 0xb0, 0x36, 0x3e, 0x3e, 0x64, 0x06, 0xbe, 
  0x66, 0x28, 0x04, 0xbe, 0x40, 0xff, 0x7d, 0x3d, 0x75, 0x6c, 0x8f, 0xbd, 
  0xf6, 0xab, 0x51, 0xbe, 0x0c, 0x1c, 0xb6, 0xbd, 0xae, 0x88, 0x37, 0xbe, 
  0x7a, 0xf4, 0x30, 0x3e, 0x54, 0x97, 0xe9, 0x3d, 0x43, 0x16, 0x90, 0xbc, 
  0x39, 0xfc, 0xa6, 0x3b, 0xd7, 0x56, 0xe6, 0x3d, 0xb6, 0x23, 0x0c, 0xbd, 
  0x6e, 0x06, 0x63, 0x3e, 0xa6, 0xb2, 0x33, 0xbd, 0x70, 0x80, 0x45, 0xbe, 
  0xdf, 0xdf, 0x9f, 0xbd, 0x59, 0x01, 0x45, 0xbe, 0xc0, 0x00, 0x14, 0x3d, 
  0xeb, 0xac, 0x42, 0x3e, 0x4b, 0xe7, 0xbb, 0xbd, 0xe7, 0x57, 0xfd, 0xbb, 
  0xb2, 0x31, 0xdd, 0x3d, 0x12, 0xc7, 0x88, 0xbe, 0x8b, 0xf8, 0x29, 0xbe, 
  0xf1, 0xfd, 0x03, 0xbe, 0x35, 0x36, 0x56, 0x3d, 0xab, 0x7c, 0x4c, 0x3e, 
  0x0c, 0xac, 0x93, 0x3e, 0x8c, 0xd3, 0x12, 0x3e, 0xfe, 0x92, 0x23, 0xbe, 
  0x25, 0x51, 0x24, 0xbd, 0x9a, 0x42, 0x4f, 0x3d, 0xc6, 0x74, 0xcc, 0xbc, 
  0xd8, 0xa0, 0x28, 0xbe, 0x3b, 0x89, 0x05, 0x3e, 0x24, 0x0e, 0xf8, 0xbd, 
  0x59, 0x2e, 0x2a, 0xbe, 0x58, 0x7a, 0x34, 0xbd, 0x15, 0xbc, 0x0b, 0x3e, 
  0x68, 0x3d, 0x56, 0x3d, 0x74, 0xb9, 0x53, 0x3d, 0x5f, 0xc7, 0x59, 0x3e, 
  0x5c, 0x74, 0x0d, 0xbe, 0x53, 0x16, 0x1b, 0xbe, 0xa8, 0x77, 0x50, 0x3e, 
  0x5d, 0x8b, 0x2f, 0xbe, 0x34, 0x4e, 0x29, 0x3e, 0x05, 0xf6, 0x06, 0x3e, 
  0xa4, 0xdd, 0x0c, 0x3e, 0x35, 0x72, 0xea, 0xbd, 0xca, 0xaf, 0x73, 0xbe, 
  0x60, 0xc8, 0x50, 0x3e, 0xde, 0xf4, 0xf6, 0x3d, 0xdf, 0x80, 0x93, 0x3e, 
  0xb9, 0x9d, 0x84, 0xbd, 0xd0, 0x8a, 0x5a, 0x3e, 0x0a, 0xb7, 0xc4, 0xbd, 
  0x31, 0x27, 0x8b, 0xbe, 0xa0, 0x6e, 0xde, 0x3d, 0x1a, 0x72, 0x2d, 0xbe, 
  0xe2, 0x36, 0x96, 0x3e, 0x05, 0x94, 0x68, 0x3d, 0xa1, 0x93, 0x54, 0xbd, 
  0xff, 0x8c, 0xcf, 0xbd, 0x13, 0x66, 0x05, 0xbe, 0xb1, 0xba, 0x47, 0x3e, 
  0xb6, 0x83, 0x05, 0x3c, 0x10, 0x77, 0x0b, 0x3e, 0xc6, 0xc3, 0xa1, 0xbd, 
  0x62, 0xae, 0x1a, 0xbe, 0x97, 0xf2, 0xd3, 0xbd, 0xbe, 0x93, 0xbf, 0x3d, 
  0xa3, 0x3b, 0x4f, 0x3d, 0x56, 0x0f, 0x57, 0x3e, 0xfa, 0x4b, 0x55, 0x3d, 
  0x0b, 0x1e, 0x78, 0xbe, 0xae, 0x68, 0x14, 0x3e, 0x44, 0x2f, 0x87, 0xbd, 
  0x4c, 0x92, 0x7f, 0x3e, 0xe1, 0x39, 0x7e, 0x3d, 0x37, 0x40, 0x1a, 0xbe, 
  0x9d, 0x07, 0xc0, 0x3d, 0x29, 0x04, 0xef, 0x3d, 0x18, 0xb2, 0x46, 0xbe, 
  0x4b, 0x2d, 0xf4, 0xbd, 0x2f, 0x2f, 0x86, 0xbe, 0xc8, 0x39, 0x2d, 0xbc, 
  0x0a, 0x5a, 0xe1, 0xbc, 0xe9, 0xf1, 0xe3, 0xbd, 0x1a, 0xe4, 0x20, 0x3e, 
  0x9e, 0xfe, 0x13, 0xbe, 0xb5, 0x51, 0xd7, 0xbd, 0xa6, 0x84, 0xef, 0x3d, 
  0x83, 0x81, 0xf8, 0x3d, 0xad, 0x1a, 0x3a, 0x3d, 0x8c, 0x38, 0xb9, 0x3d, 
  0xa2, 0xd0, 0x14, 0xbe, 0x16, 0x69, 0x13, 0xbe, 0xc3, 0x50, 0x14, 0x3e, 
  0xef, 0xcb, 0xce, 0xbd, 0x36, 0x8b, 0xff, 0xbb, 0x80, 0x0b, 0xc5, 0xbb, 
  0xdc, 0xb3, 0xa4, 0x3d, 0x9e, 0xdf, 0xa5, 0xbd, 0xed, 0xae, 0x72, 0xbe, 
  0x06, 0x3d, 0x77, 0x3c, 0x38, 0xf6, 0x8f, 0xbd, 0xf2, 0x4f, 0xdf, 0x3d, 
  0xa9, 0x83, 0xc3, 0x3d, 0x9c, 0x5e, 0x67, 0x3e, 0x2b, 0x5d, 0x0a, 0x3e, 
  0xbe, 0x01, 0x2f, 0x3d, 0xa0, 0x95, 0x4e, 0x3e, 0xc8, 0x9d, 0x6a, 0xbe, 
  0x33, 0xcc, 0x29, 0x3e, 0xc1, 0xde, 0xcc, 0xbd, 0x17, 0x85, 0xe2, 0x3d, 
  0x84, 0x46, 0x24, 0x3b, 0x4d, 0xbb, 0x23, 0x3e, 0xb7, 0x94, 0x24, 0x3d, 
  0xca, 0xbe, 0x80, 0xbe, 0xf7, 0x36, 0x1c, 0x3e, 0xc2, 0x6f, 0x39, 0x3e, 
  0xe7, 0x3a, 0x31, 0x3e, 0x44, 0x8d, 0x0c, 0xbe, 0x9f, 0x98, 0x01, 0xbe, 
  0x76, 0xcf, 0x60, 0xbe, 0x4b, 0x90, 0x0f, 0xbd, 0xca, 0x3e, 0x02, 0xbe, 
  0xb1, 0x40, 0x35, 0x3e, 0x31, 0x1b, 0x82, 0x3e, 0xc5, 0x37, 0x04, 0xbd, 
  0x91, 0xbe, 0x5c, 0xbb, 0x8f, 0xfc, 0x77, 0xbd, 0x6b, 0xe2, 0x47, 0x3e, 
  0xa0, 0xb1, 0xdf, 0xbd, 0x73, 0xfb, 0x3c, 0xbe, 0xe3, 0xfd, 0xf5, 0xbd, 
  0x4c, 0x02, 0x22, 0x3e, 0xfd, 0xde, 0x46, 0xbd, 0x85, 0xdb, 0xa1, 0xbd, 
  0xda, 0x38, 0x66, 0xbe, 0xd8, 0xd9, 0xdd, 0xbc, 0x8b, 0x05, 0x20, 0xbe, 
  0x08, 0xbb, 0x03, 0x3b, 0x2f, 0xcc, 0x38, 0x3e, 0xab, 0x34, 0x06, 0xbe, 
  0x3f, 0xb9, 0x81, 0x3e, 0x3b, 0x24, 0x20, 0x3e, 0x9e, 0x01, 0xe5, 0x3d, 
  0x90, 0xd7, 0x32, 0x3e, 0x8d, 0xfe, 0x31, 0xbe, 0x9a, 0x10, 0x80, 0xbc, 
  0xa4, 0xb6, 0x5d, 0x3d, 0xea, 0x05, 0x85, 0xbe, 0x2e, 0xcc, 0x2d, 0xbe, 
  0x46, 0x3c, 0x27, 0xbe, 0x6d, 0x52, 0x0a, 0x3e, 0x35, 0xc2, 0x41, 0x3e, 
  0xa0, 0x88, 0xec, 0x3d, 0x98, 0x91, 0x50, 0x3d, 0x0e, 0x9a, 0x1b, 0xbe, 
  0xd0, 0xfe, 0x56, 0x3e, 0x3c, 0x92, 0x45, 0xbe, 0xf8, 0x7d, 0x3f, 0xbe, 
  0x1b, 0xb8, 0x5c, 0xbe, 0xe7, 0x36, 0x56, 0x3d, 0xd2, 0x01, 0x17, 0xbd, 
  0xc4, 0xa0, 0x41, 0xbe, 0x95, 0x3f, 0x4f, 0x3e, 0x71, 0x5b, 0x11, 0xbe, 
  0x50, 0x5b, 0x31, 0xbe, 0xaf, 0xc2, 0x24, 0xbc, 0xf5, 0x60, 0x0c, 0x3d, 
  0xb1, 0x07, 0xe1, 0x3c, 0x15, 0x9f, 0x3c, 0xbe, 0xca, 0xfd, 0x05, 0xbe, 
  0x3d, 0x04, 0x65, 0xbe, 0xc4, 0x3d, 0x0b, 0xbe, 0xfb, 0x84, 0xb8, 0x3d, 
  0x8e, 0xa6, 0xa3, 0x3e, 0xa9, 0xfa, 0x3a, 0x3e, 0xa3, 0x9a, 0xf2, 0x3b, 
  0xd2, 0xb6, 0x14, 0x3e, 0xbb, 0x6a, 0x84, 0x3d, 0xb4, 0xe1, 0xff, 0x3c, 
  0xb4, 0x82, 0x9c, 0x3d, 0xbb, 0x92, 0xeb, 0x3d, 0x1a, 0x50, 0xcf, 0x3d, 
  0xf1, 0x9a, 0x37, 0x3e, 0x60, 0xd0, 0xda, 0xbd, 0x4d, 0xbd, 0x54, 0x3e, 
  0x77, 0x4b, 0x95, 0x3d, 0x6c, 0xaa, 0x27, 0x3d, 0xf4, 0xa9, 0xf1, 0x3d, 
  0x03, 0xff, 0x7d, 0x3c, 0x53, 0x65, 0x4f, 0x3e, 0xfb, 0x9d, 0x4e, 0xbe, 
  0xb6, 0x58, 0x3a, 0xbd, 0xd0, 0x5c, 0x82, 0xbd, 0x55, 0x15, 0xb4, 0x3b, 
  0x30, 0x8d, 0xb5, 0xbd, 0x43, 0x7f, 0x1d, 0x3e, 0x70, 0x72, 0x27, 0x3e, 
  0x8f, 0x7d, 0x24, 0x3d, 0x1e, 0xda, 0x73, 0x3e, 0xc1, 0x36, 0x60, 0x3c, 
  0x62, 0xa8, 0xc9, 0x3d, 0xf9, 0x62, 0x1a, 0x3e, 0x88, 0xea, 0x0a, 0xbe, 
  0xf2, 0xec, 0xff, 0xff, 0x04, 0x00, 0x00, 0x00, 0x00, 0x12, 0x00, 0x00, 
  0x4b, 0x29, 0xd4, 0x3d, 0x43, 0xcd, 0xf6, 0xbd, 0x07, 0x6c, 0x13, 0x3e, 
  0xf8, 0xf8, 0x3f, 0x3d, 0x9c, 0xf5, 0xd6, 0xbb, 0xff, 0x2d, 0x66, 0x3e, 
  0x50, 0x86, 0x30, 0x3e, 0xd6, 0x33, 0x17, 0xbd, 0xb5, 0x7c, 0x46, 0xbd, 
  0x53, 0x5e, 0x42, 0xbd, 0x8b, 0x57, 0x39, 0x3e, 0x2a, 0x9d, 0x2b, 0x3e, 
  0x3f, 0xc4, 0x8f, 0xbc, 0x8c, 0x96, 0x09, 0xbe, 0x50, 0xe1, 0xf4, 0xbd, 
  0x65, 0xa3, 0xad, 0x3b, 0x28, 0x15, 0x14, 0x3e, 0x42, 0x8a, 0x9b, 0x3d, 
  0x02, 0xd3, 0xc6, 0xbd, 0x6b, 0xdf, 0xf7, 0x3d, 0x60, 0x0d, 0x70, 0x3e, 
  0xd2, 0x74, 0x5d, 0xbd, 0x86, 0x8c, 0x65, 0x3e, 0x53, 0x6d, 0xc8, 0xbb, 
  0x64, 0x06, 0x80, 0x3e, 0x7e, 0x45, 0x32, 0x3e, 0x54, 0xd0, 0xad, 0x3d, 
  0x8e, 0xc1, 0x08, 0x3e, 0xd4, 0xe7, 0x31, 0x3e, 0xf4, 0xbc, 0x0a, 0x3e, 
  0x32, 0xf7, 0xb3, 0xbd, 0x8b, 0x3d, 0xbc, 0xbd, 0xf8, 0xa4, 0x0e, 0xbe, 
  0x63, 0x78, 0xd2, 0x3d, 0x6d, 0x10, 0x3a, 0x3e, 0x98, 0x55, 0xee, 0xbd, 
  0x9a, 0xef, 0x0e, 0xbe, 0x0f, 0x2f, 0x82, 0x3e, 0x11, 0xaf, 0xda, 0xbd, 
  0xa8, 0xff, 0x8c, 0x3e, 0xbd, 0xda, 0x73, 0xbd, 0xf5, 0x33, 0xbb, 0xbd, 
  0xf8, 0xec, 0xac, 0x3c, 0x36, 0x75, 0x91, 0x3e, 0x23, 0xc5, 0x64, 0xbd, 
  0x37, 0xe0, 0xe8, 0x3d, 0x53, 0x01, 0x66, 0x3e, 0xec, 0xea, 0xa2, 0xbd, 
  0x25, 0xd8, 0xb9, 0xbd, 0xbf, 0x1b, 0x1a, 0x3c, 0x07, 0x6d, 0x90, 0x3e, 
  0xf6, 0x14, 0x93, 0xbd, 0x78, 0xb4, 0x27, 0x3e, 0x91, 0xb8, 0x87, 0x3e, 
  0xa2, 0x21, 0x3d, 0xbc, 0x6f, 0x5a, 0xe1, 0xbb, 0xa7, 0x63, 0xde, 0xbd, 
  0x24, 0x6a, 0x25, 0x3e, 0x85, 0xc2, 0x31, 0xbd, 0xb0, 0xf9, 0xc4, 0x3d, 
  0xf1, 0x18, 0x3f, 0xbd, 0xab, 0xcf, 0x48, 0x3c, 0xe2, 0xe3, 0x17, 0x3e, 
  0x39, 0x18, 0x7b, 0x3e, 0xf6, 0xa1, 0x0a, 0x3d, 0xab, 0x58, 0x48, 0x3d, 
  0x24, 0x45, 0xe6, 0xbd, 0x35, 0xa2, 0xf7, 0x3c, 0x50, 0x42, 0x77, 0x3e, 
  0xc3, 0xd2, 0x20, 0x3e, 0x31, 0xb7, 0x18, 0x3e, 0x0d, 0xb6, 0xce, 0x3d, 
  0xe0, 0x07, 0xa4, 0xbd, 0x73, 0x8c, 0xc6, 0x3d, 0xb4, 0xe7, 0x91, 0x3e, 
  0x43, 0xe4, 0x48, 0x3e, 0x2e, 0xc3, 0x55, 0x3d, 0xaf, 0x9a, 0x72, 0x3e, 
  0x40, 0x90, 0x2e, 0x3e, 0xe2, 0xde, 0xab, 0x3d, 0x7c, 0x3d, 0x91, 0xbd, 
  0x31, 0x8e, 0x3f, 0xbd, 0xed, 0x24, 0xe0, 0xbc, 0xed, 0xea, 0x4f, 0x3d, 
  0x6e, 0x47, 0xb8, 0x3d, 0xa4, 0x8b, 0x88, 0x3d, 0x55, 0x1a, 0x8c, 0x3e, 
  0x37, 0x89, 0x4c, 0xbc, 0xae, 0xba, 0x7a, 0x3e, 0x48, 0x11, 0x1b, 0xbd, 
  0xec, 0xcb, 0x0a, 0xbe, 0x91, 0x82, 0xb9, 0x3d, 0xe5, 0xb5, 0x50, 0x3e, 
  0x0d, 0x76, 0x4f, 0x3e, 0xdf, 0xc9, 0x0c, 0x3e, 0xb6, 0x60, 0x3e, 0xbc, 
  0xc6, 0x64, 0xd2, 0xbd, 0x28, 0x92, 0x65, 0xbd, 0x4d, 0x21, 0x80, 0xbd, 
  0xe2, 0xc9, 0x64, 0x3e, 0xf0, 0x0b, 0x5e, 0x3e, 0x67, 0xd0, 0x4a, 0x3d, 
  0x84, 0xa9, 0x9a, 0x3d, 0x70, 0x4d, 0x86, 0x3e, 0xa6, 0x00, 0xe6, 0x3d, 
  0xd2, 0xa8, 0x30, 0xba, 0xed, 0xed, 0x13, 0xbe, 0x81, 0x1c, 0x3f, 0x3d, 
  0x05, 0xda, 0x12, 0x3e, 0x0b, 0xe3, 0x3e, 0xbc, 0x91, 0x81, 0xe8, 0x3d, 
  0xab, 0x91, 0xa6, 0xbd, 0x9c, 0xe8, 0x75, 0x3e, 0x2f, 0x67, 0x10, 0x3d, 
  0xea, 0xa7, 0x1e, 0x3e, 0xe8, 0xd2, 0xd9, 0xbd, 0x42, 0x5f, 0x64, 0x3e, 
  0x67, 0xa9, 0x18, 0xbe, 0x16, 0x6c, 0x1f, 0xbb, 0x03, 0x98, 0xfa, 0xbc, 
  0xb5, 0x51, 0x4a, 0x3e, 0x4a, 0x40, 0x6a, 0x3e, 0x92, 0x6f, 0x16, 0x3e, 
  0xc7, 0x8b, 0x51, 0x3e, 0xd4, 0xb5, 0x9e, 0xbd, 0xc4, 0x5c, 0x10, 0x3d, 
  0x0b, 0xe9, 0x89, 0x3e, 0x42, 0xc8, 0x5c, 0xba, 0xcd, 0xd1, 0x76, 0xbc, 
  0x8a, 0x1a, 0x54, 0x3d, 0xf5, 0xd9, 0x8f, 0xbc, 0x01, 0x7c, 0x45, 0x3e, 
  0x88, 0xff, 0x02, 0x3e, 0x08, 0x40, 0x2d, 0x3e, 0xd2, 0x57, 0x6b, 0x3e, 
  0x13, 0x18, 0x87, 0x3d, 0xca, 0x62, 0xb6, 0xbc, 0x21, 0x42, 0x31, 0x3e, 
  0x15, 0xef, 0x12, 0x3c, 0x39, 0xe3, 0x93, 0xbd, 0x0d, 0xfb, 0x4e, 0x3e, 
  0x0e, 0xed, 0x42, 0x3d, 0x16, 0x45, 0x9f, 0x3d, 0x23, 0x1a, 0xe2, 0x3d, 
  0x8f, 0xb3, 0xc3, 0x3c, 0xb5, 0x5d, 0xce, 0xbd, 0xf0, 0x8d, 0xe0, 0xbd, 
  0xd7, 0x34, 0x06, 0x3e, 0x34, 0x96, 0x81, 0x3d, 0x03, 0x12, 0xa5, 0xbd, 
  0xbb, 0xec, 0xb0, 0xbd, 0xba, 0xb6, 0xae, 0x3c, 0x66, 0xb7, 0xdd, 0x3d, 
  0xce, 0x50, 0xd1, 0xbc, 0x5b, 0x2e, 0x7c, 0x3e, 0xba, 0x02, 0x84, 0x3e, 
  0x46, 0x64, 0xa8, 0x3a, 0x13, 0x40, 0xa0, 0xbc, 0x64, 0xf0, 0x37, 0x3b, 
  0xed, 0xc7, 0x65, 0xbd, 0x3c, 0x26, 0x9c, 0x3d, 0x30, 0x7b, 0xfb, 0xbc, 
  0xa6, 0x06, 0x9a, 0xbb, 0x95, 0x18, 0xc1, 0x3d, 0x02, 0x23, 0x75, 0x3e, 
  0xf6, 0xf3, 0x25, 0xbd, 0xbd, 0xc8, 0x4a, 0xbd, 0x1a, 0x91, 0x0a, 0x3d, 
  0x9e, 0x50, 0x02, 0xbe, 0x96, 0xd7, 0x9f, 0x3d, 0x93, 0xe8, 0x4e, 0x3d, 
  0x23, 0x59, 0x31, 0x3d, 0x7f, 0xe4, 0x03, 0x3e, 0x11, 0x78, 0x93, 0x3d, 
  0xe9, 0xdb, 0xc7, 0xbc, 0x83, 0x2b, 0x5e, 0x3d, 0xf4, 0xc1, 0x6d, 0x3e, 
  0x97, 0x7e, 0x92, 0x3e, 0x72, 0x0b, 0x78, 0xbd, 0xdb, 0x81, 0xa0, 0x3d, 
  0x2f, 0xd0, 0xbd, 0xbd, 0xda, 0x8d, 0x9d, 0xbd, 0x8b, 0xfc, 0x55, 0x3e, 
  0xa3, 0x3b, 0x07, 0x3d, 0xab, 0x00, 0x73, 0xbd, 0x6b, 0xc9, 0x08, 0xbd, 
  0xa2, 0x6a, 0x9e, 0x3d, 0x88, 0xa7, 0x81, 0xbd, 0xb8, 0x4f, 0xa8, 0xbd, 
  0x0f, 0xff, 0x2f, 0x3e, 0xb0, 0x9e, 0xa8, 0x3d, 0xf8, 0x98, 0x33, 0xbd, 
  0xec, 0xc8, 0x89, 0xbd, 0xea, 0xf7, 0x44, 0x3e, 0xc8, 0xd3, 0x84, 0x3e, 
  0x8d, 0x2c, 0x03, 0xbd, 0xaf, 0x63, 0x69, 0xbd, 0xd1, 0x84, 0x52, 0xbc, 
  0xd2, 0x03, 0x57, 0x3e, 0x1a, 0x0f, 0x14, 0xbd, 0xfb, 0x0e, 0xe3, 0xbc, 
  0x91, 0x1e, 0x9e, 0x3d, 0xfa, 0x9a, 0xb0, 0xbd, 0x8d, 0x79, 0x87, 0xbd, 
  0x57, 0xaf, 0x7e, 0x3e, 0xf7, 0x91, 0x23, 0xbd, 0xc1, 0x48, 0x91, 0x3c, 
  0x70, 0x63, 0x30, 0x3e, 0x35, 0x1c, 0x98, 0x3c, 0x4e, 0xe9, 0xaf, 0x3d, 
  0x73, 0x01, 0x13, 0x3e, 0xac, 0x54, 0x5b, 0x3e, 0x6f, 0x01, 0x83, 0xbd, 
  0xf3, 0x9d, 0x2a, 0x3d, 0xfe, 0xd5, 0xec, 0xba, 0xc1, 0x3a, 0x7d, 0x3e, 
  0xe5, 0xfe, 0xa9, 0x3c, 0xd1, 0xc7, 0x30, 0x3e, 0xf6, 0x6d, 0x82, 0x3e, 
  0xbf, 0x32, 0x08, 0x3e, 0x77, 0x30, 0x4f, 0x3e, 0xb8, 0x35, 0xfd, 0x3d, 
  0x2c, 0x65, 0xdc, 0x3d, 0x31, 0x5e, 0x98, 0x3d, 0x71, 0xbf, 0xc6, 0xbd, 
  0x32, 0xf4, 0x78, 0x3d, 0x0e, 0xde, 0x81, 0x3e, 0xde, 0x1a, 0xb8, 0xbd, 
  0xee, 0x49, 0x78, 0x3e, 0x5e, 0x83, 0xde, 0x3c, 0x9c, 0x60, 0x92, 0x3e, 
  0xef, 0xce, 0xa7, 0x3d, 0xb8, 0x7a, 0x36, 0x3e, 0xfc, 0xdc, 0x11, 0x3d, 
  0x00, 0xd1, 0x2e, 0xbe, 0x59, 0xf4, 0x2a, 0x3d, 0x31, 0xf3, 0x31, 0xbd, 
  0x9d, 0xee, 0x90, 0x3d, 0xe4, 0xbe, 0x66, 0x3d, 0x99, 0x7f, 0x89, 0x3d, 
  0x54, 0xcb, 0x4e, 0x3e, 0x4f, 0x22, 0x83, 0xbd, 0xed, 0x91, 0x37, 0x3d, 
  0x36, 0x7a, 0xb2, 0xbc, 0x83, 0x5c, 0x3e, 0x3e, 0xa5, 0xe7, 0xa0, 0x3d, 
  0xbb, 0x17, 0x72, 0x3e, 0xcc, 0xfc, 0x14, 0xbd, 0xb8, 0x35, 0x83, 0x3e, 
  0x7d, 0x96, 0xd3, 0x3d, 0xfe, 0x5e, 0x3d, 0x3e, 0x46, 0x3f, 0x29, 0x3e, 
  0x89, 0x05, 0x77, 0x3e, 0xb6, 0x1b, 0x86, 0xbb, 0x31, 0xa2, 0xf9, 0x3a, 
  0x37, 0x4f, 0xb5, 0xbd, 0x97, 0x73, 0x5c, 0xbd, 0xc0, 0x2c, 0x1f, 0xbd, 
  0x86, 0x7f, 0x1a, 0xbe, 0x29, 0x1d, 0x78, 0x3e, 0x8a, 0x42, 0x89, 0x3c, 
  0x5b, 0x89, 0x2d, 0x3d, 0xd0, 0xfd, 0x47, 0xbd, 0x6f, 0x5c, 0x84, 0x3e, 
  0x09, 0x06, 0x47, 0x3e, 0xb6, 0xc3, 0x2c, 0x3e, 0x02, 0x16, 0x34, 0xbd, 
  0xff, 0x1a, 0x86, 0xbd, 0x2d, 0xf7, 0xba, 0xbb, 0x38, 0x6b, 0x6a, 0x3e, 
  0x6b, 0x5d, 0xe1, 0x3d, 0x95, 0x8a, 0x83, 0x3e, 0xae, 0xaf, 0xca, 0x3c, 
  0xb2, 0x82, 0xa9, 0x3e, 0xf6, 0x37, 0xc0, 0x3c, 0xc6, 0xbe, 0xb4, 0xbd, 
  0xca, 0x21, 0x2c, 0xbd, 0xb7, 0x04, 0x53, 0x3e, 0xb9, 0xf2, 0xdd, 0xbd, 
  0x2c, 0x35, 0x69, 0x3e, 0x22, 0x68, 0x99, 0xbd, 0x65, 0x65, 0x2f, 0x3e, 
  0x88, 0x72, 0x47, 0xbe, 0x16, 0x86, 0x8c, 0xbd, 0x0d, 0xd5, 0x2d, 0xbc, 
  0xcf, 0xa9, 0x53, 0x3e, 0xf1, 0x3f, 0xa1, 0xbd, 0x53, 0xa6, 0xd0, 0x3d, 
  0xd1, 0xe5, 0x4e, 0xbb, 0x5c, 0x81, 0xe5, 0xba, 0xed, 0x70, 0x9d, 0x3d, 
  0x59, 0x77, 0x15, 0xbb, 0x6b, 0xab, 0x83, 0x3b, 0x93, 0xaa, 0x69, 0xbc, 
  0xc5, 0x63, 0xf7, 0xba, 0xd7, 0x37, 0x07, 0xbb, 0x41, 0x63, 0x2b, 0xbb, 
  0x61, 0xed, 0xcd, 0xbc, 0xa3, 0x40, 0x34, 0xbb, 0xe6, 0xc1, 0xc9, 0xbb, 
  0x47, 0xa9, 0xc8, 0x3b, 0x0e, 0x3a, 0x46, 0xbb, 0x13, 0xe6, 0xbb, 0x3c, 
  0x5a, 0x71, 0xba, 0xba, 0x52, 0x6f, 0xd2, 0xba, 0xe7, 0xb5, 0x87, 0xba, 
  0x10, 0x02, 0xae, 0x34, 0x65, 0xd2, 0x47, 0xbb, 0xdd, 0xf5, 0x2a, 0xbb, 
  0x2d, 0x96, 0x85, 0xbc, 0xa4, 0x95, 0x5a, 0xbb, 0xbf, 0x76, 0x20, 0xbb, 
  0x7e, 0x45, 0x7f, 0xbb, 0x09, 0xb3, 0xad, 0xba, 0x59, 0x83, 0x19, 0xbc, 
  0x91, 0xb7, 0x2a, 0xbb, 0xf9, 0xec, 0x46, 0xbb, 0x5c, 0x10, 0x9c, 0xbc, 
  0xe1, 0xb3, 0xb2, 0xba, 0xb2, 0x06, 0x06, 0xbb, 0xc7, 0x30, 0x2b, 0xbb, 
  0xbc, 0xa5, 0xc9, 0x3c, 0x39, 0x71, 0xef, 0xba, 0x3b, 0x25, 0xab, 0x3c, 
  0xea, 0x84, 0xe3, 0xbb, 0x4b, 0xb2, 0x6d, 0xbb, 0x53, 0x8e, 0x24, 0xbd, 
  0x95, 0xe5, 0x1b, 0xbb, 0xb5, 0xef, 0xdd, 0xba, 0xbc, 0x37, 0x04, 0xbb, 
  0x37, 0x6d, 0xac, 0xb3, 0x8c, 0xb6, 0x16, 0x3b, 0x3d, 0x4a, 0x2b, 0xbb, 
  0x6d, 0x32, 0x73, 0xbc, 0x99, 0xe3, 0x0f, 0xbb, 0xcc, 0xa1, 0x0a, 0xbb, 
  0x48, 0xf2, 0x67, 0xbb, 0x85, 0xf7, 0xd7, 0xba, 0xeb, 0x7c, 0x0f, 0xbc, 
  0x0a, 0x41, 0x2c, 0xbb, 0xa3, 0x41, 0x42, 0xba, 0xc5, 0x31, 0x0a, 0xbb, 
  0x5d, 0x28, 0xe9, 0xba, 0xa8, 0xee, 0x00, 0xbb, 0xab, 0xc0, 0x21, 0xbb, 
  0xc3, 0x0d, 0x1d, 0x3c, 0x08, 0x79, 0x24, 0xbb, 0x98, 0x90, 0xdd, 0xbc, 
  0x31, 0xf7, 0x04, 0xbc, 0xba, 0x1c, 0x6a, 0xbb, 0xf5, 0x60, 0x81, 0x3b, 
  0xb0, 0x71, 0x2e, 0xba, 0x5b, 0xa3, 0x0c, 0xbb, 0x9a, 0x19, 0xfc, 0xba, 
  0xbc, 0x2e, 0xaa, 0x34, 0x0c, 0x42, 0x54, 0xbb, 0x97, 0x7f, 0xfe, 0xba, 
  0x0a, 0xd2, 0x79, 0xbc, 0x31, 0x41, 0x24, 0xbb, 0xba, 0x92, 0xd9, 0xba, 
  0x45, 0xb8, 0xff, 0xbd, 0xbd, 0xf9, 0x05, 0x3e, 0x03, 0xcb, 0x71, 0x3e, 
  0x67, 0x06, 0xb5, 0xbd, 0x65, 0x9e, 0xde, 0xbc, 0x43, 0x5b, 0x28, 0xbd, 
  0xcd, 0x53, 0x41, 0x3e, 0xbd, 0x98, 0x2f, 0x3e, 0x4c, 0x64, 0x0f, 0x3e, 
  0x98, 0x68, 0x86, 0x3e, 0xd5, 0xa6, 0x32, 0xbd, 0xfb, 0x3a, 0x1b, 0xbe, 
  0x29, 0x1a, 0x7e, 0x3e, 0x91, 0x5d, 0xcb, 0xbd, 0xb9, 0xfd, 0xea, 0x3c, 
  0xf8, 0x7d, 0x4c, 0x3e, 0x96, 0xe1, 0x89, 0xbd, 0xf4, 0x77, 0xed, 0xbc, 
  0x60, 0x48, 0xca, 0xbd, 0x1f, 0xbd, 0x7a, 0x3d, 0x07, 0x3a, 0x38, 0xbe, 
  0xac, 0x08, 0x89, 0x3e, 0xb1, 0x69, 0xc8, 0xbd, 0x12, 0x94, 0xc4, 0x3b, 
  0x6e, 0x7b, 0x2a, 0x3e, 0xa4, 0x50, 0x62, 0xbd, 0x9b, 0xe8, 0x72, 0xbd, 
  0x0a, 0xf6, 0x78, 0xbd, 0x45, 0x20, 0x0c, 0xbe, 0x80, 0xd4, 0x13, 0xbd, 
  0x38, 0x37, 0x72, 0x3e, 0x56, 0x77, 0x41, 0x3d, 0x92, 0x76, 0x22, 0x3e, 
  0x19, 0xc2, 0x87, 0xbc, 0xd6, 0x2c, 0xe2, 0xbd, 0xc6, 0x34, 0x8a, 0x3e, 
  0xca, 0x31, 0x20, 0x3d, 0xb7, 0x40, 0xf3, 0xbd, 0x76, 0x94, 0x1e, 0xbd, 
  0xc2, 0xa9, 0x74, 0x3e, 0xda, 0x3d, 0x64, 0x3e, 0x5e, 0xd9, 0x0a, 0xbe, 
  0x55, 0x17, 0x6e, 0x3d, 0xbe, 0xa5, 0x86, 0x39, 0x94, 0x11, 0xec, 0xbd, 
  0xb4, 0x34, 0xfc, 0xbd, 0xc8, 0x0a, 0x78, 0x3e, 0xdf, 0xcf, 0x20, 0x3e, 
  0xd0, 0x55, 0x84, 0xbd, 0x86, 0x77, 0x86, 0x3e, 0x71, 0x6d, 0xdc, 0x3c, 
  0x45, 0xf4, 0xa1, 0x3c, 0x5f, 0x6d, 0x90, 0xbd, 0x97, 0xaf, 0x9b, 0x3e, 
  0xdd, 0x70, 0xb3, 0xbb, 0xfe, 0xa8, 0xa5, 0xbc, 0x2e, 0x49, 0xb3, 0x3e, 
  0xb9, 0x83, 0x76, 0x3e, 0x7e, 0xbb, 0x0a, 0x3e, 0x46, 0x43, 0x2b, 0x3d, 
  0x9d, 0xc7, 0xb9, 0xbd, 0x4f, 0x17, 0x85, 0xbd, 0x64, 0x69, 0xfb, 0xbc, 
  0xa1, 0xb3, 0x80, 0x3e, 0x34, 0x91, 0x6e, 0x3e, 0xde, 0x85, 0x42, 0x3e, 
  0xea, 0xf2, 0x23, 0xbe, 0x28, 0xcf, 0x38, 0x3a, 0xa6, 0x6c, 0x8a, 0x3e, 
  0x40, 0x67, 0xb9, 0xbc, 0x16, 0x25, 0x9b, 0xbb, 0xd5, 0xef, 0x79, 0x3d, 
  0x89, 0xe5, 0x88, 0x3e, 0xaa, 0x0a, 0x2f, 0x3e, 0xbf, 0x6c, 0x90, 0xbd, 
  0xc6, 0x75, 0x4e, 0x3d, 0x39, 0xbd, 0x0b, 0xbe, 0x87, 0x88, 0xa8, 0xbd, 
  0xc1, 0x48, 0xd7, 0xbd, 0xe1, 0xbb, 0x3f, 0x3e, 0xf4, 0xe2, 0xae, 0x3c, 
  0xc9, 0xfa, 0x5e, 0x3e, 0xea, 0x86, 0x0a, 0x3e, 0x7f, 0xe4, 0x4d, 0xbd, 
  0x30, 0x32, 0x44, 0x3e, 0x3e, 0xa3, 0x09, 0x3e, 0x0c, 0x8f, 0xd1, 0x3b, 
  0x0a, 0x42, 0x19, 0x3d, 0x51, 0x64, 0xcb, 0x3d, 0xf8, 0xd9, 0x43, 0x3e, 
  0x6f, 0xb8, 0xea, 0xbd, 0xa1, 0x5f, 0x52, 0xbd, 0x2c, 0x1e, 0x78, 0x3e, 
  0x81, 0x5d, 0xf5, 0x3d, 0x5f, 0xe5, 0x3c, 0xb8, 0x7e, 0xb3, 0xc8, 0x3d, 
  0x13, 0x6e, 0xf3, 0x3d, 0x81, 0xdc, 0xdb, 0x3d, 0x3f, 0x03, 0xdd, 0x3d, 
  0xbf, 0x7e, 0x3d, 0x3d, 0x4b, 0x1a, 0x2d, 0xbe, 0xed, 0xfe, 0x63, 0x3e, 
  0xa9, 0x5a, 0x38, 0x3e, 0x00, 0xda, 0x70, 0xbd, 0x60, 0x57, 0x91, 0xbd, 
  0x3f, 0xc8, 0x12, 0x3e, 0x82, 0xa7, 0x67, 0xbc, 0x0c, 0xb9, 0xcf, 0xbb, 
  0xf4, 0x6f, 0x8d, 0x3c, 0xd7, 0x91, 0x48, 0x3e, 0xbb, 0x1f, 0xe6, 0xbd, 
  0xa0, 0x45, 0x3c, 0x3d, 0x19, 0x62, 0xea, 0x3d, 0x5d, 0x01, 0x27, 0x3b, 
  0xa3, 0xbb, 0xe5, 0xbd, 0x32, 0xb4, 0x13, 0x3e, 0xf7, 0x5f, 0x4c, 0x3d, 
  0xcb, 0x24, 0xd0, 0xbc, 0xe8, 0x54, 0x74, 0x3d, 0x4b, 0x1b, 0x4b, 0x3e, 
  0x59, 0x00, 0x70, 0xbd, 0x72, 0x4a, 0x6d, 0x3e, 0xda, 0x07, 0x80, 0x3e, 
  0xab, 0xb3, 0x74, 0x3e, 0xfb, 0x3a, 0xe0, 0xbd, 0x79, 0x3d, 0x0c, 0x3d, 
  0x94, 0x41, 0x51, 0x3e, 0x84, 0xa7, 0x85, 0xbd, 0x9c, 0x44, 0xf8, 0x3d, 
  0xad, 0xc8, 0xe4, 0xbd, 0x50, 0x54, 0xc2, 0x3d, 0x02, 0x2a, 0x5a, 0x3d, 
  0x5a, 0x45, 0x5a, 0xbd, 0xfd, 0xd5, 0xe7, 0xbd, 0x35, 0x5a, 0x5d, 0xbd, 
  0x91, 0xaf, 0x23, 0x3e, 0x5c, 0x08, 0x59, 0x3e, 0x11, 0xde, 0xa2, 0x3c, 
  0xaa, 0x8d, 0xa7, 0x3c, 0xf5, 0x60, 0x9c, 0x3e, 0xd3, 0xc5, 0xdd, 0xbd, 
  0x3d, 0xd1, 0x9c, 0x3d, 0xa4, 0x64, 0xf1, 0xbd, 0x90, 0x59, 0x96, 0x3e, 
  0x18, 0x9e, 0x10, 0xbe, 0xbd, 0x00, 0xdf, 0x3c, 0xa3, 0x6d, 0xbb, 0x3e, 
  0xc3, 0x9e, 0x80, 0x3e, 0xd5, 0xdf, 0x34, 0x3d, 0xdc, 0x80, 0xbc, 0x3d, 
  0xc4, 0x9a, 0x2d, 0x3e, 0x7d, 0x06, 0xa8, 0x3c, 0x6e, 0x1d, 0x9e, 0x3d, 
  0xab, 0x29, 0x5a, 0x3e, 0x93, 0x36, 0x87, 0x3d, 0xbf, 0x78, 0xc0, 0xbd, 
  0xf6, 0xfc, 0xc6, 0x3d, 0xd1, 0x31, 0x99, 0xbc, 0xbe, 0x10, 0x21, 0xbd, 
  0xd4, 0x68, 0x20, 0xbd, 0x93, 0xd2, 0x78, 0x3e, 0xd8, 0x96, 0x26, 0xbd, 
  0x30, 0xc8, 0x1c, 0xbe, 0x46, 0xc6, 0x0a, 0x3c, 0xb5, 0x95, 0x09, 0x3c, 
  0x37, 0x64, 0xd4, 0xbd, 0x51, 0xdb, 0x8f, 0x3e, 0x30, 0x88, 0x9e, 0x3e, 
  0x88, 0xfd, 0xd7, 0xbd, 0x64, 0x9e, 0x63, 0x3e, 0x9a, 0x18, 0x6e, 0x3e, 
  0x20, 0x3a, 0x99, 0xbc, 0x52, 0x67, 0x89, 0x3e, 0x9a, 0x12, 0x55, 0x3e, 
  0x47, 0x58, 0x27, 0xbd, 0xe7, 0x35, 0x71, 0xbd, 0xee, 0xcd, 0x7d, 0xbd, 
  0x18, 0x07, 0xe8, 0x3d, 0x76, 0x97, 0x1a, 0x3e, 0x1f, 0xb1, 0x3d, 0x3e, 
  0xed, 0x36, 0x11, 0x3e, 0xbe, 0xec, 0x95, 0xbe, 0x5c, 0x5d, 0x0f, 0xbc, 
  0xb8, 0x94, 0x4e, 0x3e, 0x62, 0x53, 0x8b, 0x3e, 0xc8, 0x9c, 0x4c, 0x3e, 
  0x32, 0x78, 0x41, 0xbe, 0x7f, 0x2a, 0x30, 0x3e, 0xdc, 0x7c, 0x2c, 0x3e, 
  0x51, 0x9b, 0xea, 0x3d, 0xdd, 0xce, 0x39, 0x3e, 0xef, 0x71, 0xa5, 0x3e, 
  0x53, 0xf3, 0x22, 0xbe, 0x53, 0x60, 0xaf, 0xbd, 0xb8, 0xb3, 0x63, 0x3e, 
  0x1c, 0x92, 0x4e, 0x3e, 0x7f, 0x9d, 0x85, 0xbd, 0x94, 0xf3, 0x8b, 0x3e, 
  0x7b, 0xa5, 0x34, 0x3e, 0xd4, 0xa6, 0x20, 0xbe, 0xce, 0x63, 0x52, 0x3e, 
  0x47, 0xfb, 0x5e, 0x3e, 0xd9, 0x2c, 0xa5, 0x3e, 0x4f, 0x29, 0xe8, 0xbd, 
  0x82, 0x36, 0x41, 0x3e, 0x30, 0x99, 0x55, 0xbb, 0x03, 0x7b, 0xdc, 0x3d, 
  0x8d, 0x81, 0x54, 0x3e, 0xdf, 0x62, 0x9f, 0xbc, 0x22, 0x9d, 0xa8, 0x3c, 
  0x51, 0x02, 0x0a, 0x3d, 0x36, 0x69, 0xa6, 0x3d, 0xdd, 0x7f, 0x43, 0x3e, 
  0x73, 0x9b, 0x6b, 0x3d, 0xf9, 0x83, 0x49, 0xbd, 0x5c, 0x45, 0x9c, 0x3d, 
  0x0e, 0xae, 0xfb, 0xbd, 0xb2, 0x16, 0x5e, 0x3c, 0x6f, 0xc4, 0x34, 0x3e, 
  0x6a, 0x14, 0xc6, 0x3d, 0xf4, 0xa0, 0xc9, 0xbd, 0x83, 0xc2, 0x5b, 0x3e, 
  0xf1, 0xef, 0x14, 0x3e, 0xa6, 0xa4, 0xe9, 0xbd, 0x93, 0x16, 0x52, 0x3d, 
  0x7e, 0x4d, 0x53, 0xbd, 0xcd, 0x32, 0x11, 0xbe, 0x5c, 0x43, 0xe7, 0xbd, 
  0x77, 0xe8, 0x00, 0xbe, 0x77, 0x4d, 0x66, 0xbb, 0xe1, 0xdb, 0x08, 0xbe, 
  0x70, 0x4c, 0x1c, 0xbe, 0xe9, 0xc2, 0x43, 0x3c, 0x30, 0x95, 0xd5, 0xbc, 
  0x99, 0xfc, 0x98, 0xbd, 0x32, 0x0a, 0x08, 0xbe, 0x7e, 0x8d, 0x06, 0x3e, 
  0xe8, 0x17, 0xe8, 0xba, 0x4f, 0x85, 0x7c, 0x3e, 0x4e, 0xa0, 0x73, 0x3e, 
  0x97, 0xdf, 0x79, 0x3d, 0x67, 0x6f, 0x38, 0x3e, 0x3f, 0x5a, 0x7b, 0x3c, 
  0xae, 0x3f, 0x96, 0xbd, 0xc0, 0xc9, 0x32, 0x3e, 0xd1, 0xc7, 0x64, 0x3e, 
  0x95, 0xc1, 0x30, 0xba, 0x00, 0x32, 0x1f, 0x3e, 0xed, 0x3b, 0x21, 0xbe, 
  0xa0, 0xab, 0x02, 0x3e, 0x7d, 0xcb, 0x14, 0x3e, 0x58, 0xbb, 0x74, 0xbd, 
  0x5e, 0x2d, 0x29, 0xbe, 0x8f, 0xcf, 0x7c, 0x3e, 0x13, 0xf0, 0xf8, 0x3c, 
  0x95, 0x6b, 0x2c, 0x3e, 0x4d, 0x71, 0x13, 0x3d, 0x3b, 0x2b, 0x43, 0xbe, 
  0xf4, 0x8d, 0x52, 0x3c, 0x3e, 0xa3, 0x41, 0x3c, 0x93, 0xec, 0x52, 0x3e, 
  0xc4, 0xdc, 0x0a, 0xbb, 0xf8, 0xd5, 0x4a, 0xbe, 0x48, 0x55, 0x26, 0xbb, 
  0x8b, 0xd3, 0x51, 0x3e, 0x06, 0xaf, 0x24, 0x3e, 0x73, 0x11, 0x2c, 0x3e, 
  0x92, 0x28, 0xd7, 0xbd, 0x73, 0xe9, 0x1a, 0x3e, 0x3e, 0x91, 0x98, 0xbd, 
  0x33, 0xc1, 0x34, 0x3e, 0x53, 0xc3, 0x81, 0xbc, 0x87, 0xe9, 0x0d, 0x3d, 
  0x58, 0x66, 0xcb, 0x3d, 0x0b, 0xfe, 0x69, 0x3e, 0x4a, 0x6b, 0x67, 0x3e, 
  0x8b, 0xb5, 0xef, 0x3d, 0x89, 0x68, 0xe1, 0x3d, 0x9f, 0x85, 0x83, 0x3e, 
  0x7c, 0x8d, 0xb1, 0xbd, 0x4a, 0x37, 0xa6, 0x3d, 0x30, 0xb6, 0x8b, 0xbd, 
  0xc6, 0x90, 0xfd, 0xbd, 0x2c, 0x40, 0xa1, 0x3d, 0xeb, 0x90, 0x2a, 0xbe, 
  0x5d, 0xe8, 0x24, 0x3e, 0xfd, 0xee, 0x52, 0x3e, 0x09, 0x69, 0x62, 0xbd, 
  0x97, 0x83, 0xdd, 0xbd, 0xf4, 0xc5, 0x0e, 0xbd, 0x21, 0xdd, 0x4a, 0x3e, 
  0x8c, 0x09, 0x28, 0x3e, 0x63, 0x95, 0xe2, 0x3c, 0x8e, 0x97, 0x00, 0x3e, 
  0x07, 0x71, 0x19, 0xbd, 0x40, 0x87, 0xdb, 0x3c, 0x4f, 0x88, 0x82, 0x3d, 
  0x7a, 0xcf, 0x36, 0x3d, 0xb6, 0x30, 0xf4, 0xba, 0xcf, 0xe1, 0xcd, 0x3d, 
  0xce, 0x56, 0xd1, 0xbd, 0x64, 0xb5, 0x03, 0xbd, 0x25, 0xd8, 0xfe, 0x3d, 
  0xb5, 0x84, 0x9f, 0xbd, 0x09, 0xd7, 0x58, 0xbd, 0x14, 0x21, 0x84, 0x3d, 
  0xae, 0xdd, 0x02, 0xbe, 0x20, 0x6a, 0x74, 0xbc, 0xde, 0xc5, 0x45, 0xbd, 
  0xd3, 0x85, 0x1c, 0xbe, 0x74, 0xca, 0xc1, 0x3d, 0x44, 0xb0, 0x9c, 0x3e, 
  0x4d, 0x41, 0x09, 0x3d, 0x48, 0x25, 0x47, 0x3e, 0xc7, 0x97, 0x65, 0x3e, 
  0x29, 0xff, 0x85, 0xbc, 0x52, 0xae, 0x34, 0x3e, 0x51, 0x32, 0x8a, 0x3d, 
  0x26, 0xb6, 0xa9, 0x3b, 0xe8, 0x70, 0x03, 0x3e, 0x18, 0xf5, 0x2b, 0x3e, 
  0x5d, 0xa4, 0x33, 0x3e, 0xb3, 0xdb, 0x02, 0x3e, 0xfc, 0x42, 0xff, 0x3c, 
  0xba, 0x10, 0x83, 0x3e, 0x84, 0xb2, 0x8b, 0x3b, 0x7e, 0x66, 0x84, 0xbd, 
  0x58, 0x4e, 0x96, 0x3b, 0xdc, 0xab, 0xe2, 0x3d, 0x4c, 0x0b, 0x15, 0x3d, 
  0x14, 0x74, 0x2e, 0x3e, 0xec, 0xb8, 0xcc, 0xbd, 0xe9, 0x0f, 0x05, 0x3e, 
  0xd4, 0x0c, 0x39, 0x3e, 0x01, 0xb9, 0x37, 0x3d, 0x05, 0x9b, 0x02, 0x3d, 
  0x96, 0x6b, 0x30, 0x3e, 0x57, 0x7b, 0x6e, 0xbe, 0xc1, 0xe8, 0x41, 0xbd, 
  0xad, 0x42, 0x5a, 0x3e, 0x29, 0x07, 0x6b, 0xbd, 0x2d, 0xb8, 0x02, 0x3e, 
  0x01, 0xbd, 0x9a, 0xbc, 0xe7, 0xf1, 0xcd, 0xbd, 0x93, 0x5a, 0x0b, 0x3e, 
  0x0a, 0xfc, 0x6f, 0xbd, 0xf8, 0xa4, 0x0c, 0x3e, 0x5b, 0x54, 0x54, 0xbd, 
  0x68, 0x55, 0x04, 0x3e, 0xf5, 0x25, 0x8d, 0xbb, 0x50, 0xbc, 0xc6, 0x3c, 
  0x72, 0x6c, 0x88, 0x3d, 0x64, 0x12, 0x33, 0x3e, 0x52, 0x7f, 0x34, 0x3e, 
  0x82, 0x4a, 0x91, 0x3d, 0xc5, 0x3b, 0x55, 0xbd, 0x4b, 0x6b, 0xd2, 0x3b, 
  0x78, 0x0d, 0x61, 0x3e, 0x67, 0x4b, 0x17, 0x3d, 0x25, 0xd8, 0x07, 0x3e, 
  0x93, 0xc1, 0x05, 0xbe, 0xeb, 0x9d, 0x08, 0x3e, 0xe1, 0xa6, 0x84, 0x3e, 
  0x6f, 0x49, 0xa2, 0x3d, 0xb3, 0xd7, 0x9b, 0x3d, 0x9c, 0x16, 0x55, 0x3d, 
  0xc2, 0xc3, 0x6a, 0x3e, 0x48, 0xee, 0xb7, 0x3c, 0x3e, 0x93, 0x83, 0x3e, 
  0x37, 0xc9, 0x64, 0x3e, 0xb4, 0x9e, 0x08, 0xbe, 0x16, 0x78, 0x3b, 0x3e, 
  0x83, 0x41, 0x69, 0xbd, 0x59, 0x10, 0x14, 0xbe, 0x66, 0xf2, 0xba, 0xbc, 
  0x11, 0xae, 0x5a, 0x3e, 0x93, 0x3c, 0x1b, 0x3e, 0x15, 0x42, 0x2f, 0xbc, 
  0x34, 0x11, 0xe9, 0xbc, 0xf1, 0x0f, 0x16, 0x3c, 0xa9, 0xd7, 0xb9, 0xbd, 
  0x97, 0x27, 0x51, 0x3c, 0x8f, 0x81, 0xfb, 0x3d, 0x76, 0x1c, 0xa9, 0x3d, 
  0xcf, 0x6f, 0xba, 0x3d, 0x86, 0xd2, 0x15, 0x3e, 0x93, 0x05, 0x39, 0xbd, 
  0x7a, 0x63, 0x2b, 0x3e, 0x12, 0xc3, 0x11, 0x3e, 0x5f, 0xd5, 0x45, 0xbe, 
  0x18, 0xff, 0x2f, 0xbe, 0xda, 0x0f, 0x8b, 0x3c, 0xf2, 0x11, 0xa4, 0x3d, 
  0x67, 0x88, 0x84, 0xbd, 0x91, 0xa8, 0x1c, 0x3e, 0x9f, 0x01, 0x7b, 0xbd, 
  0x3c, 0x90, 0x37, 0x3e, 0x10, 0x5b, 0x44, 0x3e, 0x81, 0xc8, 0x24, 0x3e, 
  0xbd, 0xdc, 0x90, 0x3d, 0x94, 0x14, 0x82, 0x3e, 0x46, 0x3e, 0x88, 0x3e, 
  0xdf, 0xff, 0xb9, 0xbd, 0x4c, 0xb7, 0xbf, 0xbd, 0xc6, 0xa0, 0xe4, 0x3d, 
  0x50, 0x51, 0x2a, 0x3d, 0xd9, 0xb3, 0x8b, 0x3d, 0xeb, 0xe5, 0x8c, 0x3c, 
  0x41, 0xc7, 0x8e, 0x39, 0xce, 0x26, 0x71, 0x3c, 0x0b, 0x72, 0x71, 0x3e, 
  0xd3, 0x54, 0xc2, 0xbd, 0xa9, 0xe7, 0x7a, 0x3e, 0x01, 0xb8, 0x22, 0x3e, 
  0x0f, 0xf2, 0x18, 0xbd, 0x46, 0x7c, 0x6c, 0x3c, 0xde, 0x35, 0x00, 0xbd, 
  0xdf, 0x06, 0x61, 0x3e, 0x88, 0x66, 0x5d, 0x3e, 0xb6, 0x34, 0x27, 0x3e, 
  0x88, 0xdf, 0x7a, 0x3e, 0x79, 0xbc, 0x3b, 0x3e, 0x09, 0xd4, 0xd9, 0x3b, 
  0x8f, 0xb3, 0x27, 0xbc, 0xf4, 0x7b, 0x96, 0xbc, 0xe1, 0x71, 0x92, 0x3e, 
  0xdd, 0xab, 0x35, 0x3c, 0xd3, 0x1b, 0xe0, 0xbd, 0x90, 0x16, 0xb6, 0xbd, 
  0x7d, 0x15, 0x3d, 0xbd, 0xe4, 0x97, 0xa9, 0x3a, 0x3f, 0x5a, 0x33, 0xbc, 
  0x73, 0x1d, 0xb5, 0x3d, 0xfa, 0xae, 0xff, 0x3c, 0x8f, 0x92, 0xff, 0xbc, 
  0x32, 0x4a, 0xdf, 0xbd, 0x5b, 0x39, 0x26, 0x3d, 0x4c, 0xad, 0x07, 0xbe, 
  0x0a, 0x9c, 0x62, 0xbc, 0xd6, 0x67, 0x3e, 0x3e, 0xc0, 0x03, 0x66, 0xbe, 
  0xe5, 0x88, 0xb6, 0xbc, 0xa7, 0x7c, 0xd3, 0x3d, 0x4c, 0xee, 0x07, 0x3e, 
  0xc5, 0x15, 0x1c, 0xbe, 0x53, 0x26, 0xe2, 0x3b, 0xf0, 0xeb, 0xaa, 0xbd, 
  0x40, 0xce, 0x66, 0xbe, 0xf5, 0x84, 0x18, 0x3e, 0x5d, 0xda, 0x17, 0x3d, 
  0x86, 0x89, 0x87, 0xbd, 0x29, 0x24, 0xaf, 0x3d, 0x63, 0xe2, 0xd5, 0x3d, 
  0x47, 0xd5, 0x00, 0x3e, 0x14, 0xd7, 0x03, 0xbd, 0x76, 0x91, 0xfa, 0xbd, 
  0x64, 0x03, 0x55, 0xbe, 0x6d, 0xf4, 0x1f, 0xbd, 0xf6, 0xa1, 0xa6, 0x3c, 
  0xec, 0xdc, 0x3d, 0xbc, 0x2b, 0xaa, 0x40, 0xbe, 0x26, 0x33, 0xa6, 0x3d, 
  0x00, 0x94, 0x24, 0xbb, 0x33, 0xf3, 0xc5, 0x3d, 0x26, 0x8f, 0x13, 0x3d, 
  0xe9, 0xb2, 0xd4, 0xbd, 0xdb, 0x94, 0x65, 0xbe, 0xe4, 0x75, 0x11, 0xbe, 
  0x37, 0xf4, 0x42, 0xbd, 0x66, 0x6a, 0x7e, 0xbe, 0xff, 0x0b, 0x2f, 0x3d, 
  0x8a, 0xa8, 0x54, 0x3d, 0xe0, 0x4a, 0x32, 0x3d, 0x36, 0x51, 0x87, 0xbd, 
  0x41, 0x29, 0x01, 0x3d, 0x48, 0x1a, 0x36, 0xbe, 0x5a, 0x5e, 0x55, 0xbd, 
  0x43, 0x92, 0x6d, 0xbe, 0x9a, 0xed, 0xe9, 0xbc, 0xbd, 0xc6, 0xbf, 0xbc, 
  0x20, 0xd2, 0x9a, 0x3c, 0x8f, 0xac, 0xb6, 0x3c, 0x8e, 0x12, 0xbc, 0xbd, 
  0x4c, 0xe2, 0xb0, 0xbd, 0x1d, 0xaf, 0xfe, 0x3c, 0xca, 0x45, 0xd3, 0x3d, 
  0x53, 0x30, 0x26, 0xba, 0xac, 0x08, 0xe6, 0x3d, 0x0e, 0x13, 0x01, 0x3e, 
  0x32, 0x45, 0x62, 0xbe, 0xed, 0x46, 0x5d, 0xbe, 0x07, 0xcf, 0xd4, 0x3d, 
  0x2c, 0xf1, 0x61, 0xbe, 0x51, 0xda, 0xf8, 0x3c, 0xc9, 0xca, 0x93, 0xbd, 
  0xe9, 0x18, 0x2f, 0xbe, 0xe4, 0x81, 0x2f, 0x3e, 0x78, 0xe8, 0x07, 0x3e, 
  0xfa, 0xbc, 0x0a, 0xbe, 0x28, 0x80, 0xef, 0xbd, 0xd0, 0x6c, 0xab, 0x3d, 
  0x11, 0x88, 0x27, 0xbe, 0x16, 0xf4, 0x16, 0x3e, 0x15, 0xee, 0x9a, 0xbd, 
  0x57, 0x19, 0x63, 0x3e, 0x22, 0x97, 0x34, 0x3e, 0x9f, 0x02, 0xaf, 0x3c, 
  0x77, 0x9f, 0xb6, 0x3d, 0x61, 0x6b, 0x3c, 0x3d, 0x86, 0xc2, 0xf4, 0x3d, 
  0xd3, 0x2b, 0x0f, 0xbe, 0xf3, 0x99, 0x9b, 0x3d, 0x08, 0x2b, 0x10, 0xbe, 
  0x20, 0x0b, 0xfa, 0x3d, 0x84, 0xb5, 0x35, 0x3e, 0xc2, 0xcd, 0x83, 0x3d, 
  0x8c, 0xba, 0xb1, 0x3d, 0x33, 0x26, 0x4b, 0x3e, 0x65, 0x48, 0x58, 0x3e, 
  0x59, 0xc7, 0x82, 0x3e, 0x06, 0xa8, 0x2f, 0x3d, 0x1d, 0x0b, 0xf5, 0xbc, 
  0x8f, 0xa3, 0x13, 0xbe, 0xdd, 0x44, 0x86, 0x3e, 0x5b, 0xe2, 0x07, 0xbd, 
  0x69, 0x31, 0x91, 0xbd, 0xb5, 0xa8, 0x01, 0xbd, 0x43, 0xe5, 0x3a, 0x3e, 
  0x67, 0x9e, 0x48, 0x3e, 0xa7, 0x2e, 0xa1, 0xbc, 0xfa, 0xd8, 0x32, 0x3e, 
  0xb5, 0x9f, 0xb7, 0x3d, 0x34, 0x22, 0x2c, 0xbe, 0x0b, 0x2e, 0xea, 0x3c, 
  0xb6, 0xf7, 0x52, 0x3d, 0xc3, 0xe0, 0x36, 0xbe, 0x30, 0x78, 0x3e, 0x3e, 
  0xbd, 0xd0, 0xde, 0x39, 0xca, 0xf0, 0xfa, 0xbd, 0x6d, 0x33, 0x12, 0x3e, 
  0x02, 0x32, 0x97, 0x3d, 0x52, 0x80, 0x40, 0xbe, 0x87, 0xcf, 0xe7, 0x3c, 
  0x71, 0x7c, 0x4e, 0x3e, 0x0f, 0xb0, 0x2c, 0x3d, 0xa3, 0xd4, 0xb8, 0xbd, 
  0x05, 0xb7, 0xe5, 0xbd, 0x43, 0xa8, 0xcb, 0x3d, 0xf5, 0x46, 0xc7, 0xbd, 
  0x2a, 0xac, 0xc8, 0x3d, 0x19, 0x14, 0xcc, 0xbc, 0x38, 0xca, 0x62, 0x3e, 
  0x81, 0x71, 0x1a, 0xbe, 0xc6, 0x39, 0xd3, 0x3d, 0xc8, 0xe3, 0x2e, 0x3d, 
  0xe4, 0x66, 0x09, 0x3e, 0x87, 0x4f, 0x06, 0x3e, 0x77, 0x18, 0x39, 0x3e, 
  0x99, 0x81, 0x4d, 0x3e, 0xc2, 0x00, 0x49, 0xbd, 0x3d, 0x8f, 0x5a, 0x3e, 
  0x77, 0x40, 0xdd, 0xbd, 0xa5, 0x0d, 0xbe, 0x3c, 0x19, 0xab, 0x0a, 0x3e, 
  0x9f, 0x62, 0x86, 0x3e, 0x58, 0x62, 0x10, 0x3e, 0x9d, 0x1d, 0x9e, 0xbd, 
  0xa4, 0x40, 0x67, 0x3e, 0xc0, 0xad, 0xd3, 0xbd, 0x5a, 0x33, 0x15, 0xbe, 
  0x15, 0xbf, 0x91, 0x3d, 0x65, 0x08, 0xe5, 0xbd, 0xe2, 0x12, 0x0a, 0x3e, 
  0x41, 0xc4, 0x08, 0x3d, 0x8a, 0x86, 0x95, 0xbc, 0x13, 0x41, 0x06, 0xbe, 
  0xba, 0x4e, 0xce, 0xbd, 0x58, 0xd0, 0xac, 0x3d, 0x89, 0x0f, 0x60, 0xbd, 
  0x69, 0x8a, 0xba, 0x3d, 0xbe, 0xe7, 0xd3, 0xbd, 0xd9, 0xe5, 0x10, 0xbe, 
  0x4f, 0x84, 0x09, 0xbe, 0x48, 0x6d, 0x4d, 0x3e, 0xb8, 0xfd, 0xdf, 0xbd, 
  0x2a, 0xc1, 0xbd, 0xbd, 0xec, 0x94, 0xd0, 0xbd, 0x21, 0x46, 0x6a, 0x3e, 
  0x8e, 0x43, 0x8d, 0xbc, 0xa9, 0x26, 0x41, 0x3e, 0xfd, 0x1d, 0xf4, 0xbd, 
  0xcc, 0x35, 0xe4, 0x3d, 0x7f, 0xde, 0x5c, 0x3d, 0x4c, 0xcc, 0x29, 0x3d, 
  0xf3, 0x96, 0xa1, 0xbe, 0x15, 0xa4, 0x17, 0x3e, 0x8c, 0x6f, 0x12, 0xbe, 
  0xb9, 0x4b, 0x6f, 0xbd, 0xff, 0xd8, 0x2e, 0x3e, 0x80, 0x6c, 0xa5, 0x3a, 
  0x82, 0xfb, 0xc3, 0xbd, 0x52, 0x11, 0x27, 0x3e, 0xe0, 0xa3, 0x92, 0xbd, 
  0xf7, 0xbc, 0x4a, 0x3d, 0xdd, 0x74, 0x21, 0x3e, 0x02, 0x80, 0xd0, 0xbc, 
  0xd1, 0x28, 0x58, 0x3d, 0x45, 0x1e, 0x2e, 0x3e, 0x06, 0x5c, 0x07, 0x3d, 
  0xad, 0xcb, 0xd0, 0x3d, 0xc0, 0x56, 0x94, 0x3d, 0x80, 0x3b, 0xd5, 0x3c, 
  0x82, 0xc9, 0x8b, 0xbb, 0x9b, 0x71, 0x97, 0xbc, 0x63, 0xb9, 0xd5, 0xbd, 
  0x6e, 0xf7, 0x37, 0x3e, 0x1b, 0x0e, 0xbc, 0xbc, 0x1e, 0x4d, 0x2a, 0x3e, 
  0xe2, 0xa7, 0x49, 0xbe, 0xb8, 0x15, 0x18, 0xb9, 0xdf, 0x58, 0x19, 0x3d, 
  0xc8, 0xe7, 0x25, 0xbd, 0x19, 0xd4, 0xac, 0x3c, 0x23, 0xfd, 0x12, 0x3e, 
  0x93, 0xe1, 0x37, 0xbe, 0x0a, 0x1e, 0x82, 0x3b, 0xb7, 0x23, 0xb8, 0x3d, 
  0xc3, 0xb7, 0x14, 0xbc, 0x17, 0xd2, 0x90, 0x3d, 0x00, 0x17, 0xbc, 0xbc, 
  0x44, 0x9b, 0x53, 0xbe, 0xf8, 0xbd, 0x34, 0x3e, 0xd9, 0xf2, 0xce, 0xbd, 
  0xbe, 0xf9, 0x32, 0xbc, 0x14, 0xa5, 0x59, 0x3e, 0x61, 0xf6, 0x77, 0x3d, 
  0x33, 0xb8, 0xa0, 0x3d, 0xe8, 0x47, 0x07, 0xbe, 0x65, 0x85, 0x6c, 0x3e, 
  0x50, 0xb5, 0xd2, 0x3c, 0x40, 0x36, 0xc2, 0xbd, 0x81, 0x98, 0xae, 0xbd, 
  0x5f, 0x30, 0x58, 0xbe, 0xb7, 0x2f, 0x3b, 0x3e, 0x70, 0x1b, 0x1a, 0xbd, 
  0x06, 0x1b, 0x56, 0x3e, 0x2e, 0xe5, 0x91, 0x3e, 0x99, 0xca, 0x2d, 0xbc, 
  0x1a, 0x5f, 0xb4, 0xbd, 0x10, 0xbf, 0xd8, 0xbd, 0xdf, 0x85, 0xe7, 0xba, 
  0x0c, 0x24, 0x24, 0x3e, 0xc1, 0x0a, 0x4c, 0x3e, 0x0e, 0xa5, 0x15, 0x3e, 
  0xac, 0xdb, 0xdf, 0xbd, 0xda, 0x51, 0x07, 0xbd, 0xd9, 0x31, 0x0a, 0x3e, 
  0xed, 0x12, 0x06, 0x3e, 0x01, 0x7b, 0xc5, 0xbb, 0x42, 0x0a, 0x74, 0xbc, 
  0xbf, 0xff, 0x67, 0x3d, 0x8f, 0xb5, 0x96, 0xbd, 0x2c, 0x55, 0x0a, 0x3d, 
  0xe6, 0x80, 0x1f, 0xbe, 0xd2, 0xd5, 0x80, 0x3c, 0x58, 0x7d, 0x8f, 0x3e, 
  0x1b, 0x27, 0x48, 0xbe, 0x38, 0x06, 0x13, 0xbe, 0x88, 0xa6, 0x41, 0x3e, 
  0x88, 0x33, 0x83, 0xbd, 0x20, 0x39, 0xc1, 0xbd, 0x15, 0x3d, 0x05, 0x3e, 
  0xbc, 0x21, 0xcc, 0x3d, 0x2c, 0x10, 0x37, 0x3e, 0xdf, 0xe1, 0x01, 0xbd, 
  0x9e, 0xb5, 0x11, 0x3d, 0x8c, 0x4c, 0x96, 0x3d, 0x4a, 0xdf, 0x29, 0x3e, 
  0x3d, 0xe2, 0x3b, 0x3d, 0x9d, 0x9a, 0x1b, 0xbe, 0x20, 0xcd, 0x15, 0x3d, 
  0x45, 0x21, 0x06, 0xbe, 0x62, 0x06, 0x92, 0x3e, 0xa3, 0xfb, 0x2c, 0xbe, 
  0x61, 0xc3, 0x70, 0x3e, 0x29, 0x9b, 0xc6, 0x3d, 0x86, 0x69, 0xd5, 0x3d, 
  0xad, 0x35, 0x3e, 0xbe, 0x82, 0x04, 0xfe, 0xbd, 0x39, 0x33, 0x1f, 0x3d, 
  0x65, 0xfa, 0x0e, 0xbe, 0x37, 0xb0, 0x62, 0x3b, 0xfd, 0x92, 0xeb, 0xbc, 
  0x05, 0xcb, 0xf7, 0x3d, 0xa3, 0x5e, 0x56, 0x3e, 0xe5, 0x36, 0xfc, 0x3d, 
  0xfb, 0x4f, 0xbb, 0xbc, 0x9d, 0x12, 0x0b, 0xbe, 0xfd, 0x4b, 0x26, 0xbe, 
  0x8b, 0x05, 0x0b, 0x3e, 0x1b, 0x1f, 0x7c, 0xbd, 0x07, 0x66, 0xd7, 0x3d, 
  0xc4, 0xe2, 0x95, 0x3d, 0x7c, 0xad, 0xa6, 0x3d, 0xe1, 0x11, 0x19, 0x3c, 
  0xc4, 0x87, 0x7c, 0x3e, 0xb5, 0x92, 0xaf, 0x3d, 0xcb, 0x60, 0xb8, 0xbd, 
  0x0d, 0xa2, 0x11, 0x3e, 0xe2, 0xeb, 0xd7, 0xbd, 0x2d, 0x2c, 0x2a, 0x3e, 
  0xd4, 0x57, 0x3c, 0x3e, 0xb3, 0xd4, 0x8e, 0x3d, 0xd7, 0x64, 0x68, 0x3d, 
  0xb0, 0xc1, 0x93, 0xbd, 0x4d, 0x5e, 0x43, 0x3e, 0x2c, 0x74, 0x82, 0x3d, 
  0x34, 0xb3, 0x1a, 0x3d, 0x88, 0x11, 0x96, 0xbd, 0x26, 0x17, 0x64, 0x3b, 
  0xd3, 0x79, 0xda, 0x3d, 0x3b, 0x58, 0x72, 0x3d, 0x09, 0x26, 0xe8, 0xbd, 
  0x03, 0x08, 0xb0, 0x3d, 0xb0, 0xf8, 0xba, 0xbd, 0x87, 0x2e, 0x59, 0xbe, 
  0x2c, 0x80, 0x76, 0x3d, 0xe2, 0x0e, 0x0c, 0xbe, 0x04, 0xbb, 0x84, 0x3e, 
  0xbb, 0x34, 0x46, 0x3d, 0x28, 0x0a, 0x70, 0x3e, 0xd7, 0x9d, 0xa5, 0x3d, 
  0x62, 0x1f, 0x1f, 0x3d, 0x25, 0x5d, 0x15, 0x3e, 0x9a, 0x19, 0x1e, 0xbe, 
  0xdb, 0x42, 0x2e, 0xbe, 0x86, 0x34, 0xd9, 0xbc, 0x2a, 0x88, 0xec, 0x3c, 
  0x84, 0x8c, 0x82, 0x3d, 0xd9, 0x4c, 0x80, 0xbc, 0x9d, 0x2a, 0x6c, 0xbd, 
  0x4f, 0x70, 0x26, 0xbe, 0xe0, 0xd4, 0x14, 0x3d, 0x06, 0x6c, 0xe2, 0x3c, 
  0x0d, 0xec, 0xdd, 0xbd, 0x88, 0x93, 0x25, 0xbe, 0x0a, 0x11, 0x8a, 0x3e, 
  0x3d, 0xd6, 0xab, 0x39, 0x00, 0xe6, 0x01, 0x3e, 0x2e, 0xa6, 0x99, 0x3c, 
  0x9f, 0x0d, 0x58, 0xbe, 0x5b, 0x45, 0x13, 0x3e, 0x28, 0x77, 0xd1, 0xbd, 
  0xda, 0x9e, 0xaa, 0x3d, 0x05, 0xbb, 0xb7, 0xbb, 0x90, 0x14, 0x0c, 0xbe, 
  0x6b, 0x18, 0xd3, 0xbd, 0x5c, 0x94, 0x01, 0xbe, 0x2c, 0xa8, 0x06, 0xbd, 
  0x9f, 0x2c, 0x29, 0x3d, 0x4e, 0x96, 0x12, 0x3e, 0x6e, 0x92, 0x37, 0x3e, 
  0xb9, 0xa1, 0xcc, 0xbd, 0xe7, 0x77, 0x14, 0x3e, 0xf4, 0x0b, 0xbb, 0x3d, 
  0xeb, 0x8b, 0x34, 0x3e, 0x47, 0x3a, 0x2e, 0x3e, 0x79, 0x9f, 0x1f, 0x3d, 
  0xa6, 0x1c, 0x92, 0x3c, 0xcb, 0x66, 0x6d, 0xbe, 0xa2, 0x86, 0x9a, 0xbd, 
  0xe5, 0x2f, 0xa1, 0xbd, 0x0a, 0x64, 0x9f, 0x3c, 0xc6, 0x96, 0x37, 0xbe, 
  0x26, 0x71, 0xfe, 0xbd, 0x6f, 0xe7, 0x14, 0xbe, 0xb5, 0xbf, 0x8a, 0x3e, 
  0xf8, 0xb5, 0xe1, 0xbd, 0xcd, 0x1f, 0x58, 0x3e, 0x17, 0x81, 0x46, 0x3d, 
  0xd1, 0x18, 0xb2, 0x3d, 0x30, 0x25, 0xcf, 0xbd, 0x45, 0x7a, 0xd0, 0xbd, 
  0x74, 0xf4, 0xba, 0xbd, 0xcc, 0x62, 0xb8, 0xbd, 0xb8, 0x7e, 0x63, 0x3e, 
  0x66, 0xbc, 0x03, 0x3e, 0x9e, 0xfd, 0x9e, 0xbd, 0xfa, 0x6f, 0x9e, 0xbd, 
  0x69, 0xda, 0x01, 0x3e, 0x99, 0xb8, 0x34, 0xbe, 0x76, 0xc0, 0xe1, 0xbd, 
  0xfe, 0xfe, 0xff, 0xff, 0x04, 0x00, 0x00, 0x00, 0x0c, 0x00, 0x00, 0x00, 
  0xff, 0xff, 0xff, 0xff, 0x08, 0x00, 0x00, 0x00, 0x18, 0x00, 0x00, 0x00, 
  0x16, 0xff, 0xff, 0xff, 0x04, 0x00, 0x00, 0x00, 0x0c, 0x00, 0x00, 0x00, 
  0xff, 0xff, 0xff, 0xff, 0x06, 0x00, 0x00, 0x00, 0x10, 0x00, 0x00, 0x00, 
  0x2e, 0xff, 0xff, 0xff, 0x04, 0x00, 0x00, 0x00, 0x0c, 0x00, 0x00, 0x00, 
  0xdc, 0xbe, 0xfa, 0x3f, 0xff, 0xa6, 0x00, 0x40, 0xc2, 0xfd, 0x01, 0x40, 
  0x46, 0xff, 0xff, 0xff, 0x04, 0x00, 0x00, 0x00, 0x60, 0x00, 0x00, 0x00, 
  0xc9, 0xd9, 0x91, 0x3e, 0xa5, 0x87, 0x65, 0x3e, 0xf8, 0x69, 0xbb, 0x3e, 
  0x8d, 0x8e, 0x91, 0x3e, 0x6b, 0xd4, 0xc0, 0x3e, 0xa2, 0x00, 0x98, 0x3e, 
  0x2c, 0xbe, 0x88, 0x3e, 0xdd, 0xc3, 0x6d, 0x3e, 0xf6, 0x4c, 0x7d, 0x3e, 
  0x1f, 0xd0, 0x84, 0x3e, 0x62, 0xd9, 0xa6, 0x3e, 0x6b, 0xd8, 0x92, 0x3e, 
  0x85, 0x0c, 0x8b, 0x3e, 0x84, 0x17, 0x90, 0x3e, 0x48, 0xf9, 0xa6, 0x3e, 
  0x84, 0x19, 0x8c, 0x3e, 0x55, 0xa9, 0x93, 0x3e, 0xe7, 0xd3, 0x83, 0x3e, 
  0x9f, 0x54, 0x38, 0xbe, 0xde, 0x48, 0xca, 0x3e, 0x1d, 0x80, 0xa6, 0x3e, 
  0x47, 0x1d, 0x85, 0x3e, 0xb1, 0x58, 0xb2, 0x3e, 0x8c, 0x9c, 0xa1, 0x3e, 
  0xb2, 0xff, 0xff, 0xff, 0x04, 0x00, 0x00, 0x00, 0x40, 0x00, 0x00, 0x00, 
  0x97, 0xb4, 0xdd, 0x3e, 0xff, 0xdf, 0xee, 0x3e, 0x88, 0xce, 0x1f, 0x3f, 
  0x80, 0x72, 0x14, 0x3f, 0x60, 0xcf, 0x0b, 0xbd, 0x59, 0x9d, 0x07, 0x3f, 
  0x66, 0x34, 0x02, 0x3f, 0xa3, 0x01, 0x1a, 0xbf, 0x3c, 0xbf, 0xf6, 0x3e, 
  0x91, 0xb0, 0x16, 0x3f, 0xb1, 0x05, 0x1b, 0x3f, 0x65, 0x70, 0x22, 0xbd, 
  0x1f, 0x56, 0xc4, 0x3e, 0xdf, 0x1e, 0x12, 0x3f, 0x86, 0x26, 0x23, 0x3f, 
  0x30, 0x9e, 0x2e, 0x3f, 0x00, 0x00, 0x06, 0x00, 0x08, 0x00, 0x04, 0x00, 
  0x06, 0x00, 0x00, 0x00, 0x04, 0x00, 0x00, 0x00, 0x60, 0x00, 0x00, 0x00, 
  0xa6, 0x92, 0x56, 0xbd, 0x5e, 0xb9, 0xf1, 0xbc, 0xe5, 0xdf, 0xa0, 0x3e, 
  0xb1, 0x7d, 0x88, 0xbc, 0x9b, 0xc9, 0xcb, 0x3e, 0x90, 0x72, 0xf8, 0x3e, 
  0x4c, 0xa5, 0xa2, 0xbc, 0x94, 0xf5, 0xaf, 0xbc, 0x3f, 0x92, 0xde, 0x3e, 
  0x74, 0x92, 0x94, 0xbc, 0x73, 0x01, 0xb2, 0xbc, 0x43, 0x82, 0x05, 0x3f, 
  0xa3, 0x12, 0x0a, 0x3f, 0x81, 0x9d, 0xa6, 0xbc, 0x3d, 0x9e, 0xe1, 0x3e, 
  0x6d, 0x83, 0x81, 0xbc, 0x29, 0x7f, 0xa6, 0x3e, 0x58, 0xe9, 0xa2, 0xbc, 
  0x08, 0x62, 0xa6, 0x3e, 0x67, 0xef, 0xdb, 0x3e, 0x1f, 0x32, 0x02, 0x3f, 
  0xfd, 0x58, 0x9f, 0x3e, 0x8f, 0x9d, 0x31, 0xbd, 0x47, 0xbd, 0xb1, 0x3e, 
  0x0c, 0xf3, 0xff, 0xff, 0x10, 0xf3, 0xff, 0xff, 0x0f, 0x00, 0x00, 0x00, 
  0x4d, 0x4c, 0x49, 0x52, 0x20, 0x43, 0x6f, 0x6e, 0x76, 0x65, 0x72, 0x74, 
  0x65, 0x64, 0x2e, 0x00, 0x01, 0x00, 0x00, 0x00, 0x14, 0x00, 0x00, 0x00, 
  0x00, 0x00, 0x0e, 0x00, 0x18, 0x00, 0x14, 0x00, 0x10, 0x00, 0x0c, 0x00, 
  0x08, 0x00, 0x04, 0x00, 0x0e, 0x00, 0x00, 0x00, 0x14, 0x00, 0x00, 0x00, 
  0x1c, 0x00, 0x00, 0x00, 0x54, 0x02, 0x00, 0x00, 0x58, 0x02, 0x00, 0x00, 
  0x5c, 0x02, 0x00, 0x00, 0x04, 0x00, 0x00, 0x00, 0x6d, 0x61, 0x69, 0x6e, 
  0x00, 0x00, 0x00, 0x00, 0x09, 0x00, 0x00, 0x00, 0x0c, 0x02, 0x00, 0x00, 
  0xa8, 0x01, 0x00, 0x00, 0x70, 0x01, 0x00, 0x00, 0x34, 0x01, 0x00, 0x00, 
  0xec, 0x00, 0x00, 0x00, 0xc4, 0x00, 0x00, 0x00, 0x90, 0x00, 0x00, 0x00, 
  0x4c, 0x00, 0x00, 0x00, 0x04, 0x00, 0x00, 0x00, 0x86, 0xfe, 0xff, 0xff, 
  0x14, 0x00, 0x00, 0x00, 0x00, 0x00, 0x00, 0x08, 0x10, 0x00, 0x00, 0x00, 
  0x14, 0x00, 0x00, 0x00, 0x04, 0x00, 0x00, 0x00, 0xa4, 0xf3, 0xff, 0xff, 
  0x01, 0x00, 0x00, 0x00, 0x15, 0x00, 0x00, 0x00, 0x03, 0x00, 0x00, 0x00, 
  0x14, 0x00, 0x00, 0x00, 0x09, 0x00, 0x00, 0x00, 0x04, 0x00, 0x00, 0x00, 
  0x00, 0x00, 0x0e, 0x00, 0x1a, 0x00, 0x14, 0x00, 0x10, 0x00, 0x0c, 0x00, 
  0x0b, 0x00, 0x04, 0x00, 0x0e, 0x00, 0x00, 0x00, 0x1c, 0x00, 0x00, 0x00, 
  0x00, 0x00, 0x00, 0x08, 0x1c, 0x00, 0x00, 0x00, 0x20, 0x00, 0x00, 0x00, 
  0x04, 0x00, 0x00, 0x00, 0x00, 0x00, 0x06, 0x00, 0x08, 0x00, 0x07, 0x00, 
  0x06, 0x00, 0x00, 0x00, 0x00, 0x00, 0x00, 0x01, 0x01, 0x00, 0x00, 0x00, 
  0x14, 0x00, 0x00, 0x00, 0x03, 0x00, 0x00, 0x00, 0x13, 0x00, 0x00, 0x00, 
  0x0a, 0x00, 0x00, 0x00, 0x01, 0x00, 0x00, 0x00, 0x0a, 0xff, 0xff, 0xff, 
  0x14, 0x00, 0x00, 0x00, 0x00, 0x00, 0x00, 0x1b, 0x10, 0x00, 0x00, 0x00, 
  0x14, 0x00, 0x00, 0x00, 0x03, 0x00, 0x00, 0x00, 0x28, 0xf4, 0xff, 0xff, 
  0x01, 0x00, 0x00, 0x00, 0x13, 0x00, 0x00, 0x00, 0x02, 0x00, 0x00, 0x00, 
  0x12, 0x00, 0x00, 0x00, 0x0c, 0x00, 0x00, 0x00, 0x6a, 0xff, 0xff, 0xff, 
  0x0c, 0x00, 0x00, 0x00, 0x10, 0x00, 0x00, 0x00, 0x02, 0x00, 0x00, 0x00, 
  0x01, 0x00, 0x00, 0x00, 0x12, 0x00, 0x00, 0x00, 0x02, 0x00, 0x00, 0x00, 
  0x11, 0x00, 0x00, 0x00, 0x05, 0x00, 0x00, 0x00, 0x5e, 0xff, 0xff, 0xff, 
  0x14, 0x00, 0x00, 0x00, 0x00, 0x00, 0x00, 0x01, 0x20, 0x00, 0x00, 0x00, 
  0x24, 0x00, 0x00, 0x00, 0x01, 0x00, 0x00, 0x00, 0x50, 0xff, 0xff, 0xff, 
  0x00, 0x00, 0x00, 0x01, 0x01, 0x00, 0x00, 0x00, 0x01, 0x00, 0x00, 0x00, 
  0x00, 0x00, 0x00, 0x01, 0x01, 0x00, 0x00, 0x00, 0x11, 0x00, 0x00, 0x00, 
  0x03, 0x00, 0x00, 0x00, 0x10, 0x00, 0x00, 0x00, 0x07, 0x00, 0x00, 0x00, 
  0x02, 0x00, 0x00, 0x00, 0x42, 0xff, 0xff, 0xff, 0x10, 0x00, 0x00, 0x00, 
  0x00, 0x00, 0x00, 0x34, 0x0c, 0x00, 0x00, 0x00, 0x10, 0x00, 0x00, 0x00, 
  0xbc, 0xf4, 0xff, 0xff, 0x01, 0x00, 0x00, 0x00, 0x10, 0x00, 0x00, 0x00, 
  0x02, 0x00, 0x00, 0x00, 0x0f, 0x00, 0x00, 0x00, 0x0b, 0x00, 0x00, 0x00, 
  0x00, 0x00, 0x0a, 0x00, 0x10, 0x00, 0x0c, 0x00, 0x08, 0x00, 0x04, 0x00, 
  0x0a, 0x00, 0x00, 0x00, 0x0c, 0x00, 0x00, 0x00, 0x10, 0x00, 0x00, 0x00, 
  0x02, 0x00, 0x00, 0x00, 0x01, 0x00, 0x00, 0x00, 0x0f, 0x00, 0x00, 0x00, 
  0x02, 0x00, 0x00, 0x00, 0x0e, 0x00, 0x00, 0x00, 0x06, 0x00, 0x00, 0x00, 
  0x00, 0x00, 0x0e, 0x00, 0x18, 0x00, 0x14, 0x00, 0x10, 0x00, 0x0c, 0x00, 
  0x0b, 0x00, 0x04, 0x00, 0x0e, 0x00, 0x00, 0x00, 0x20, 0x00, 0x00, 0x00, 
  0x00, 0x00, 0x00, 0x01, 0x2c, 0x00, 0x00, 0x00, 0x30, 0x00, 0x00, 0x00, 
  0x01, 0x00, 0x00, 0x00, 0x0c, 0x00, 0x14, 0x00, 0x13, 0x00, 0x0c, 0x00, 
  0x08, 0x00, 0x07, 0x00, 0x0c, 0x00, 0x00, 0x00, 0x00, 0x00, 0x00, 0x01, 
  0x01, 0x00, 0x00, 0x00, 0x01, 0x00, 0x00, 0x00, 0x00, 0x00, 0x00, 0x01, 
  0x01, 0x00, 0x00, 0x00, 0x0e, 0x00, 0x00, 0x00, 0x03, 0x00, 0x00, 0x00, 
  0x0d, 0x00, 0x00, 0x00, 0x08, 0x00, 0x00, 0x00, 0x03, 0x00, 0x00, 0x00, 
  0x00, 0x00, 0x0e, 0x00, 0x14, 0x00, 0x00, 0x00, 0x10, 0x00, 0x0c, 0x00, 
  0x0b, 0x00, 0x04, 0x00, 0x0e, 0x00, 0x00, 0x00, 0x10, 0x00, 0x00, 0x00, 
  0x00, 0x00, 0x00, 0x34, 0x0c, 0x00, 0x00, 0x00, 0x10, 0x00, 0x00, 0x00, 
  0x88, 0xf5, 0xff, 0xff, 0x01, 0x00, 0x00, 0x00, 0x0d, 0x00, 0x00, 0x00, 
  0x02, 0x00, 0x00, 0x00, 0x00, 0x00, 0x00, 0x00, 0x0b, 0x00, 0x00, 0x00, 
  0x01, 0x00, 0x00, 0x00, 0x15, 0x00, 0x00, 0x00, 0x01, 0x00, 0x00, 0x00, 
  0x00, 0x00, 0x00, 0x00, 0x16, 0x00, 0x00, 0x00, 0x20, 0x0a, 0x00, 0x00, 
  0xcc, 0x09, 0x00, 0x00, 0x78, 0x09, 0x00, 0x00, 0x3c, 0x09, 0x00, 0x00, 
  0x00, 0x09, 0x00, 0x00, 0xc0, 0x08, 0x00, 0x00, 0x68, 0x08, 0x00, 0x00, 
  0x20, 0x08, 0x00, 0x00, 0xd8, 0x07, 0x00, 0x00, 0x98, 0x07, 0x00, 0x00, 
  0x58, 0x07, 0x00, 0x00, 0x18, 0x07, 0x00, 0x00, 0xac, 0x06, 0x00, 0x00, 
  0x24, 0x06, 0x00, 0x00, 0x04, 0x05, 0x00, 0x00, 0x14, 0x04, 0x00, 0x00, 
  0x8c, 0x03, 0x00, 0x00, 0x6c, 0x02, 0x00, 0x00, 0x7c, 0x01, 0x00, 0x00, 
  0x10, 0x01, 0x00, 0x00, 0x60, 0x00, 0x00, 0x00, 0x04, 0x00, 0x00, 0x00, 
  0x4e, 0xf6, 0xff, 0xff, 0x00, 0x00, 0x00, 0x01, 0x14, 0x00, 0x00, 0x00, 
  0x1c, 0x00, 0x00, 0x00, 0x1c, 0x00, 0x00, 0x00, 0x16, 0x00, 0x00, 0x00, 
  0x34, 0x00, 0x00, 0x00, 0x02, 0x00, 0x00, 0x00, 0xff, 0xff, 0xff, 0xff, 
  0x03, 0x00, 0x00, 0x00, 0x34, 0xf6, 0xff, 0xff, 0x1b, 0x00, 0x00, 0x00, 
  0x53, 0x74, 0x61, 0x74, 0x65, 0x66, 0x75, 0x6c, 0x50, 0x61, 0x72, 0x74, 
  0x69, 0x74, 0x69, 0x6f, 0x6e, 0x65, 0x64, 0x43, 0x61, 0x6c, 0x6c, 0x5f, 
  0x31, 0x3a, 0x30, 0x00, 0x02, 0x00, 0x00, 0x00, 0x01, 0x00, 0x00, 0x00, 
  0x03, 0x00, 0x00, 0x00, 0xa6, 0xf6, 0xff, 0xff, 0x00, 0x00, 0x00, 0x01, 
  0x14, 0x00, 0x00, 0x00, 0x1c, 0x00, 0x00, 0x00, 0x1c, 0x00, 0x00, 0x00, 
  0x15, 0x00, 0x00, 0x00, 0x88, 0x00, 0x00, 0x00, 0x02, 0x00, 0x00, 0x00, 
  0xff, 0xff, 0xff, 0xff, 0x18, 0x00, 0x00, 0x00, 0x8c, 0xf6, 0xff, 0xff, 
  0x6d, 0x00, 0x00, 0x00, 0x43, 0x4e, 0x4e, 0x31, 0x44, 0x5f, 0x54, 0x65, 
  0x6d, 0x70, 0x65, 0x72, 0x61, 0x74, 0x75, 0x72, 0x65, 0x5f, 0x31, 0x2f, 
  0x64, 0x65, 0x6e, 0x73, 0x65, 0x5f, 0x31, 0x5f, 0x31, 0x2f, 0x4d, 0x61, 
  0x74, 0x4d, 0x75, 0x6c, 0x3b, 0x43, 0x4e, 0x4e, 0x31, 0x44, 0x5f, 0x54, 
  0x65, 0x6d, 0x70, 0x65, 0x72, 0x61, 0x74, 0x75, 0x72, 0x65, 0x5f, 0x31, 
  0x2f, 0x64, 0x65, 0x6e, 0x73, 0x65, 0x5f, 0x31, 0x5f, 0x31, 0x2f, 0x52, 
  0x65, 0x6c, 0x75, 0x3b, 0x43, 0x4e, 0x4e, 0x31, 0x44, 0x5f, 0x54, 0x65, 
  0x6d, 0x70, 0x65, 0x72, 0x61, 0x74, 0x75, 0x72, 0x65, 0x5f, 0x31, 0x2f, 
  0x64, 0x65, 0x6e, 0x73, 0x65, 0x5f, 0x31, 0x5f, 0x31, 0x2f, 0x42, 0x69, 
  0x61, 0x73, 0x41, 0x64, 0x64, 0x00, 0x00, 0x00, 0x02, 0x00, 0x00, 0x00, 
  0x01, 0x00, 0x00, 0x00, 0x18, 0x00, 0x00, 0x00, 0x52, 0xf7, 0xff, 0xff, 
  0x00, 0x00, 0x00, 0x01, 0x14, 0x00, 0x00, 0x00, 0x1c, 0x00, 0x00, 0x00, 
  0x1c, 0x00, 0x00, 0x00, 0x14, 0x00, 0x00, 0x00, 0x44, 0x00, 0x00, 0x00, 
  0x02, 0x00, 0x00, 0x00, 0xff, 0xff, 0xff, 0xff, 0x10, 0x00, 0x00, 0x00, 
  0x38, 0xf7, 0xff, 0xff, 0x2a, 0x00, 0x00, 0x00, 0x43, 0x4e, 0x4e, 0x31, 
  0x44, 0x5f, 0x54, 0x65, 0x6d, 0x70, 0x65, 0x72, 0x61, 0x74, 0x75, 0x72, 
  0x65, 0x5f, 0x31, 0x2f, 0x67, 0x6c, 0x6f, 0x62, 0x61, 0x6c, 0x5f, 0x61, 
  0x76, 0x67, 0x5f, 0x70, 0x6f, 0x6f, 0x6c, 0x5f, 0x31, 0x2f, 0x4d, 0x65, 
  0x61, 0x6e, 0x00, 0x00, 0x02, 0x00, 0x00, 0x00, 0x01, 0x00, 0x00, 0x00, 
  0x10, 0x00, 0x00, 0x00, 0xba, 0xf7, 0xff, 0xff, 0x00, 0x00, 0x00, 0x01, 
  0x14, 0x00, 0x00, 0x00, 0x20, 0x00, 0x00, 0x00, 0x20, 0x00, 0x00, 0x00, 
  0x13, 0x00, 0x00, 0x00, 0xc4, 0x00, 0x00, 0x00, 0x03, 0x00, 0x00, 0x00, 
  0xff, 0xff, 0xff, 0xff, 0x06, 0x00, 0x00, 0x00, 0x10, 0x00, 0x00, 0x00, 
  0xa4, 0xf7, 0xff, 0xff, 0xa4, 0x00, 0x00, 0x00, 0x43, 0x4e, 0x4e, 0x31, 
  0x44, 0x5f, 0x54, 0x65, 0x6d, 0x70, 0x65, 0x72, 0x61, 0x74, 0x75, 0x72, 
  0x65, 0x5f, 0x31, 0x2f, 0x63, 0x6f, 0x6e, 0x76, 0x31, 0x64, 0x5f, 0x32, 
  0x5f, 0x31, 0x2f, 0x52, 0x65, 0x6c, 0x75, 0x3b, 0x43, 0x4e, 0x4e, 0x31, 
  0x44, 0x5f, 0x54, 0x65, 0x6d, 0x70, 0x65, 0x72, 0x61, 0x74, 0x75, 0x72, 
  0x65, 0x5f, 0x31, 0x2f, 0x63, 0x6f, 0x6e, 0x76, 0x31, 0x64, 0x5f, 0x32, 
  0x5f, 0x31, 0x2f, 0x42, 0x69, 0x61, 0x73, 0x41, 0x64, 0x64, 0x3b, 0x43, 
  0x4e, 0x4e, 0x31, 0x44, 0x5f, 0x54, 0x65, 0x6d, 0x70, 0x65, 0x72, 0x61, 
  0x74, 0x75, 0x72, 0x65, 0x5f, 0x31, 0x2f, 0x63, 0x6f, 0x6e, 0x76, 0x31, 
  0x64, 0x5f, 0x32, 0x5f, 0x31, 0x2f, 0x63, 0x6f, 0x6e, 0x76, 0x6f, 0x6c, 
  0x75, 0x74, 0x69, 0x6f, 0x6e, 0x2f, 0x53, 0x71, 0x75, 0x65, 0x65, 0x7a, 
  0x65, 0x3b, 0x43, 0x4e, 0x4e, 0x31, 0x44, 0x5f, 0x54, 0x65, 0x6d, 0x70, 
  0x65, 0x72, 0x61, 0x74, 0x75, 0x72, 0x65, 0x5f, 0x31, 0x2f, 0x63, 0x6f, 
  0x6e, 0x76, 0x31, 0x64, 0x5f, 0x32, 0x5f, 0x31, 0x2f, 0x53, 0x71, 0x75, 
  0x65, 0x65, 0x7a, 0x65, 0x00, 0x00, 0x00, 0x00, 0x03, 0x00, 0x00, 0x00, 
  0x01, 0x00, 0x00, 0x00, 0x06, 0x00, 0x00, 0x00, 0x10, 0x00, 0x00, 0x00, 
  0xa6, 0xf8, 0xff, 0xff, 0x00, 0x00, 0x00, 0x01, 0x14, 0x00, 0x00, 0x00, 
  0x24, 0x00, 0x00, 0x00, 0x24, 0x00, 0x00, 0x00, 0x12, 0x00, 0x00, 0x00, 
  0xf0, 0x00, 0x00, 0x00, 0x04, 0x00, 0x00, 0x00, 0xff, 0xff, 0xff, 0xff, 
  0x01, 0x00, 0x00, 0x00, 0x06, 0x00, 0x00, 0x00, 0x10, 0x00, 0x00, 0x00, 
  0x94, 0xf8, 0xff, 0xff, 0xcf, 0x00, 0x00, 0x00, 0x43, 0x4e, 0x4e, 0x31, 
  0x44, 0x5f, 0x54, 0x65, 0x6d, 0x70, 0x65, 0x72, 0x61, 0x74, 0x75, 0x72, 
  0x65, 0x5f, 0x31, 0x2f, 0x63, 0x6f, 0x6e, 0x76, 0x31, 0x64, 0x5f, 0x32, 
  0x5f, 0x31, 0x2f, 0x52, 0x65, 0x6c, 0x75, 0x3b, 0x43, 0x4e, 0x4e, 0x31, 
  0x44, 0x5f, 0x54, 0x65, 0x6d, 0x70, 0x65, 0x72, 0x61, 0x74, 0x75, 0x72, 
  0x65, 0x5f, 0x31, 0x2f, 0x63, 0x6f, 0x6e, 0x76, 0x31, 0x64, 0x5f, 0x32, 
  0x5f, 0x31, 0x2f, 0x42, 0x69, 0x61, 0x73, 0x41, 0x64, 0x64, 0x3b, 0x43, 
  0x4e, 0x4e, 0x31, 0x44, 0x5f, 0x54, 0x65, 0x6d, 0x70, 0x65, 0x72, 0x61, 
  0x74, 0x75, 0x72, 0x65, 0x5f, 0x31, 0x2f, 0x63, 0x6f, 0x6e, 0x76, 0x31, 
  0x64, 0x5f, 0x32, 0x5f, 0x31, 0x2f, 0x63, 0x6f, 0x6e, 0x76, 0x6f, 0x6c, 
  0x75, 0x74, 0x69, 0x6f, 0x6e, 0x2f, 0x53, 0x71, 0x75, 0x65, 0x65, 0x7a, 
  0x65, 0x3b, 0x43, 0x4e, 0x4e, 0x31, 0x44, 0x5f, 0x54, 0x65, 0x6d, 0x70, 
  0x65, 0x72, 0x61, 0x74, 0x75, 0x72, 0x65, 0x5f, 0x31, 0x2f, 0x63, 0x6f, 
  0x6e, 0x76, 0x31, 0x64, 0x5f, 0x32, 0x5f, 0x31, 0x2f, 0x53, 0x71, 0x75, 
  0x65, 0x65, 0x7a, 0x65, 0x3b, 0x43, 0x4e, 0x4e, 0x31, 0x44, 0x5f, 0x54, 
  0x65, 0x6d, 0x70, 0x65, 0x72, 0x61, 0x74, 0x75, 0x72, 0x65, 0x5f, 0x31, 
  0x2f, 0x63, 0x6f, 0x6e, 0x76, 0x31, 0x64, 0x5f, 0x32, 0x5f, 0x31, 0x2f, 
  0x63, 0x6f, 0x6e, 0x76, 0x6f, 0x6c, 0x75, 0x74, 0x69, 0x6f, 0x6e, 0x00, 
  0x04, 0x00, 0x00, 0x00, 0x01, 0x00, 0x00, 0x00, 0x01, 0x00, 0x00, 0x00, 
  0x06, 0x00, 0x00, 0x00, 0x10, 0x00, 0x00, 0x00, 0xc2, 0xf9, 0xff, 0xff, 
  0x00, 0x00, 0x00, 0x01, 0x14, 0x00, 0x00, 0x00, 0x24, 0x00, 0x00, 0x00, 
  0x24, 0x00, 0x00, 0x00, 0x11, 0x00, 0x00, 0x00, 0x58, 0x00, 0x00, 0x00, 
  0x04, 0x00, 0x00, 0x00, 0xff, 0xff, 0xff, 0xff, 0x01, 0x00, 0x00, 0x00, 
  0x08, 0x00, 0x00, 0x00, 0x18, 0x00, 0x00, 0x00, 0xb0, 0xf9, 0xff, 0xff, 
  0x35, 0x00, 0x00, 0x00, 0x43, 0x4e, 0x4e, 0x31, 0x44, 0x5f, 0x54, 0x65, 
  0x6d, 0x70, 0x65, 0x72, 0x61, 0x74, 0x75, 0x72, 0x65, 0x5f, 0x31, 0x2f, 
  0x63, 0x6f, 0x6e, 0x76, 0x31, 0x64, 0x5f, 0x32, 0x5f, 0x31, 0x2f, 0x63, 
  0x6f, 0x6e, 0x76, 0x6f, 0x6c, 0x75, 0x74, 0x69, 0x6f, 0x6e, 0x2f, 0x45, 
  0x78, 0x70, 0x61, 0x6e, 0x64, 0x44, 0x69, 0x6d, 0x73, 0x00, 0x00, 0x00, 
  0x04, 0x00, 0x00, 0x00, 0x01, 0x00, 0x00, 0x00, 0x01, 0x00, 0x00, 0x00, 
  0x08, 0x00, 0x00, 0x00, 0x18, 0x00, 0x00, 0x00, 0x46, 0xfa, 0xff, 0xff, 
  0x00, 0x00, 0x00, 0x01, 0x14, 0x00, 0x00, 0x00, 0x20, 0x00, 0x00, 0x00, 
  0x20, 0x00, 0x00, 0x00, 0x10, 0x00, 0x00, 0x00, 0xc4, 0x00, 0x00, 0x00, 
  0x03, 0x00, 0x00, 0x00, 0xff, 0xff, 0xff, 0xff, 0x08, 0x00, 0x00, 0x00, 
  0x18, 0x00, 0x00, 0x00, 0x30, 0xfa, 0xff, 0xff, 0xa4, 0x00, 0x00, 0x00, 
  0x43, 0x4e, 0x4e, 0x31, 0x44, 0x5f, 0x54, 0x65, 0x6d, 0x70, 0x65, 0x72, 
  0x61, 0x74, 0x75, 0x72, 0x65, 0x5f, 0x31, 0x2f, 0x63, 0x6f, 0x6e, 0x76, 
  0x31, 0x64, 0x5f, 0x31, 0x5f, 0x31, 0x2f, 0x52, 0x65, 0x6c, 0x75, 0x3b, 
  0x43, 0x4e, 0x4e, 0x31, 0x44, 0x5f, 0x54, 0x65, 0x6d, 0x70, 0x65, 0x72, 
  0x61, 0x74, 0x75, 0x72, 0x65, 0x5f, 0x31, 0x2f, 0x63, 0x6f, 0x6e, 0x76, 
  0x31, 0x64, 0x5f, 0x31, 0x5f, 0x31, 0x2f, 0x42, 0x69, 0x61, 0x73, 0x41, 
  0x64, 0x64, 0x3b, 0x43, 0x4e, 0x4e, 0x31, 0x44, 0x5f, 0x54, 0x65, 0x6d, 
  0x70, 0x65, 0x72, 0x61, 0x74, 0x75, 0x72, 0x65, 0x5f, 0x31, 0x2f, 0x63, 
  0x6f, 0x6e, 0x76, 0x31, 0x64, 0x5f, 0x31, 0x5f, 0x31, 0x2f, 0x63, 0x6f, 
  0x6e, 0x76, 0x6f, 0x6c, 0x75, 0x74, 0x69, 0x6f, 0x6e, 0x2f, 0x53, 0x71, 
  0x75, 0x65, 0x65, 0x7a, 0x65, 0x3b, 0x43, 0x4e, 0x4e, 0x31, 0x44, 0x5f, 
  0x54, 0x65, 0x6d, 0x70, 0x65, 0x72, 0x61, 0x74, 0x75, 0x72, 0x65, 0x5f, 
  0x31, 0x2f, 0x63, 0x6f, 0x6e, 0x76, 0x31, 0x64, 0x5f, 0x31, 0x5f, 0x31, 
  0x2f, 0x53, 0x71, 0x75, 0x65, 0x65, 0x7a, 0x65, 0x00, 0x00, 0x00, 0x00, 
  0x03, 0x00, 0x00, 0x00, 0x01, 0x00, 0x00, 0x00, 0x08, 0x00, 0x00, 0x00, 
  0x18, 0x00, 0x00, 0x00, 0x32, 0xfb, 0xff, 0xff, 0x00, 0x00, 0x00, 0x01, 
  0x14, 0x00, 0x00, 0x00, 0x24, 0x00, 0x00, 0x00, 0x24, 0x00, 0x00, 0x00, 
  0x0f, 0x00, 0x00, 0x00, 0xf0, 0x00, 0x00, 0x00, 0x04, 0x00, 0x00, 0x00, 
  0xff, 0xff, 0xff, 0xff, 0x01, 0x00, 0x00, 0x00, 0x08, 0x00, 0x00, 0x00, 
  0x18, 0x00, 0x00, 0x00, 0x20, 0xfb, 0xff, 0xff, 0xcf, 0x00, 0x00, 0x00, 
  0x43, 0x4e, 0x4e, 0x31, 0x44, 0x5f, 0x54, 0x65, 0x6d, 0x70, 0x65, 0x72, 
  0x61, 0x74, 0x75, 0x72, 0x65, 0x5f, 0x31, 0x2f, 0x63, 0x6f, 0x6e, 0x76, 
  0x31, 0x64, 0x5f, 0x31, 0x5f, 0x31, 0x2f, 0x52, 0x65, 0x6c, 0x75, 0x3b, 
  0x43, 0x4e, 0x4e, 0x31, 0x44, 0x5f, 0x54, 0x65, 0x6d, 0x70, 0x65, 0x72, 
  0x61, 0x74, 0x75, 0x72, 0x65, 0x5f, 0x31, 0x2f, 0x63, 0x6f, 0x6e, 0x76, 
  0x31, 0x64, 0x5f, 0x31, 0x5f, 0x31, 0x2f, 0x42, 0x69, 0x61, 0x73, 0x41, 
  0x64, 0x64, 0x3b, 0x43, 0x4e, 0x4e, 0x31, 0x44, 0x5f, 0x54, 0x65, 0x6d, 
  0x70, 0x65, 0x72, 0x61, 0x74, 0x75, 0x72, 0x65, 0x5f, 0x31, 0x2f, 0x63, 
  0x6f, 0x6e, 0x76, 0x31, 0x64, 0x5f, 0x31, 0x5f, 0x31, 0x2f, 0x63, 0x6f, 
  0x6e, 0x76, 0x6f, 0x6c, 0x75, 0x74, 0x69, 0x6f, 0x6e, 0x2f, 0x53, 0x71, 
  0x75, 0x65, 0x65, 0x7a, 0x65, 0x3b, 0x43, 0x4e, 0x4e, 0x31, 0x44, 0x5f, 
  0x54, 0x65, 0x6d, 0x70, 0x65, 0x72, 0x61, 0x74, 0x75, 0x72, 0x65, 0x5f, 
  0x31, 0x2f, 0x63, 0x6f, 0x6e, 0x76, 0x31, 0x64, 0x5f, 0x31, 0x5f, 0x31, 
  0x2f, 0x53, 0x71, 0x75, 0x65, 0x65, 0x7a, 0x65, 0x3b, 0x43, 0x4e, 0x4e, 
  0x31, 0x44, 0x5f, 0x54, 0x65, 0x6d, 0x70, 0x65, 0x72, 0x61, 0x74, 0x75, 
  0x72, 0x65, 0x5f, 0x31, 0x2f, 0x63, 0x6f, 0x6e, 0x76, 0x31, 0x64, 0x5f, 
  0x31, 0x5f, 0x31, 0x2f, 0x63, 0x6f, 0x6e, 0x76, 0x6f, 0x6c, 0x75, 0x74, 
  0x69, 0x6f, 0x6e, 0x00, 0x04, 0x00, 0x00, 0x00, 0x01, 0x00, 0x00, 0x00, 
  0x01, 0x00, 0x00, 0x00, 0x08, 0x00, 0x00, 0x00, 0x18, 0x00, 0x00, 0x00, 
  0x4e, 0xfc, 0xff, 0xff, 0x00, 0x00, 0x00, 0x01, 0x14, 0x00, 0x00, 0x00, 
  0x24, 0x00, 0x00, 0x00, 0x24, 0x00, 0x00, 0x00, 0x0e, 0x00, 0x00, 0x00, 
  0x58, 0x00, 0x00, 0x00, 0x04, 0x00, 0x00, 0x00, 0xff, 0xff, 0xff, 0xff, 
  0x01, 0x00, 0x00, 0x00, 0x0a, 0x00, 0x00, 0x00, 0x04, 0x00, 0x00, 0x00, 
  0x3c, 0xfc, 0xff, 0xff, 0x35, 0x00, 0x00, 0x00, 0x43, 0x4e, 0x4e, 0x31, 
  0x44, 0x5f, 0x54, 0x65, 0x6d, 0x70, 0x65, 0x72, 0x61, 0x74, 0x75, 0x72, 
  0x65, 0x5f, 0x31, 0x2f, 0x63, 0x6f, 0x6e, 0x76, 0x31, 0x64, 0x5f, 0x31, 
  0x5f, 0x31, 0x2f, 0x63, 0x6f, 0x6e, 0x76, 0x6f, 0x6c, 0x75, 0x74, 0x69, 
  0x6f, 0x6e, 0x2f, 0x45, 0x78, 0x70, 0x61, 0x6e, 0x64, 0x44, 0x69, 0x6d, 
  0x73, 0x00, 0x00, 0x00, 0x04, 0x00, 0x00, 0x00, 0x01, 0x00, 0x00, 0x00, 
  0x01, 0x00, 0x00, 0x00, 0x0a, 0x00, 0x00, 0x00, 0x04, 0x00, 0x00, 0x00, 
  0x1e, 0xfe, 0xff, 0xff, 0x00, 0x00, 0x00, 0x01, 0x14, 0x00, 0x00, 0x00, 
  0x14, 0x00, 0x00, 0x00, 0x0d, 0x00, 0x00, 0x00, 0x00, 0x00, 0x00, 0x02, 
  0x4c, 0x00, 0x00, 0x00, 0xac, 0xfc, 0xff, 0xff, 0x3c, 0x00, 0x00, 0x00, 
  0x43, 0x4e, 0x4e, 0x31, 0x44, 0x5f, 0x54, 0x65, 0x6d, 0x70, 0x65, 0x72, 
  0x61, 0x74, 0x75, 0x72, 0x65, 0x5f, 0x31, 0x2f, 0x67, 0x6c, 0x6f, 0x62, 
  0x61, 0x6c, 0x5f, 0x61, 0x76, 0x67, 0x5f, 0x70, 0x6f, 0x6f, 0x6c, 0x5f, 
  0x31, 0x2f, 0x4d, 0x65, 0x61, 0x6e, 0x2f, 0x72, 0x65, 0x64, 0x75, 0x63, 
  0x74, 0x69, 0x6f, 0x6e, 0x5f, 0x69, 0x6e, 0x64, 0x69, 0x63, 0x65, 0x73, 
  0x00, 0x00, 0x00, 0x00, 0x00, 0x00, 0x00, 0x00, 0x86, 0xfe, 0xff, 0xff, 
  0x00, 0x00, 0x00, 0x01, 0x14, 0x00, 0x00, 0x00, 0x14, 0x00, 0x00, 0x00, 
  0x0c, 0x00, 0x00, 0x00, 0x00, 0x00, 0x00, 0x02, 0x20, 0x00, 0x00, 0x00, 
  0x14, 0xfd, 0xff, 0xff, 0x10, 0x00, 0x00, 0x00, 0x61, 0x72, 0x69, 0x74, 
  0x68, 0x2e, 0x63, 0x6f, 0x6e, 0x73, 0x74, 0x61, 0x6e, 0x74, 0x31, 0x30, 
  0x00, 0x00, 0x00, 0x00, 0x00, 0x00, 0x00, 0x00, 0xc6, 0xfd, 0xff, 0xff, 
  0x00, 0x00, 0x00, 0x01, 0x10, 0x00, 0x00, 0x00, 0x10, 0x00, 0x00, 0x00, 
  0x0b, 0x00, 0x00, 0x00, 0x1c, 0x00, 0x00, 0x00, 0x4c, 0xfd, 0xff, 0xff, 
  0x0f, 0x00, 0x00, 0x00, 0x61, 0x72, 0x69, 0x74, 0x68, 0x2e, 0x63, 0x6f, 
  0x6e, 0x73, 0x74, 0x61, 0x6e, 0x74, 0x39, 0x00, 0x02, 0x00, 0x00, 0x00, 
  0x18, 0x00, 0x00, 0x00, 0x10, 0x00, 0x00, 0x00, 0x02, 0xfe, 0xff, 0xff, 
  0x00, 0x00, 0x00, 0x01, 0x10, 0x00, 0x00, 0x00, 0x10, 0x00, 0x00, 0x00, 
  0x0a, 0x00, 0x00, 0x00, 0x1c, 0x00, 0x00, 0x00, 0x88, 0xfd, 0xff, 0xff, 
  0x0f, 0x00, 0x00, 0x00, 0x61, 0x72, 0x69, 0x74, 0x68, 0x2e, 0x63, 0x6f, 
  0x6e, 0x73, 0x74, 0x61, 0x6e, 0x74, 0x38, 0x00, 0x02, 0x00, 0x00, 0x00, 
  0x03, 0x00, 0x00, 0x00, 0x18, 0x00, 0x00, 0x00, 0x3e, 0xfe, 0xff, 0xff, 
  0x00, 0x00, 0x00, 0x01, 0x10, 0x00, 0x00, 0x00, 0x10, 0x00, 0x00, 0x00, 
  0x09, 0x00, 0x00, 0x00, 0x1c, 0x00, 0x00, 0x00, 0xc4, 0xfd, 0xff, 0xff, 
  0x0f, 0x00, 0x00, 0x00, 0x61, 0x72, 0x69, 0x74, 0x68, 0x2e, 0x63, 0x6f, 
  0x6e, 0x73, 0x74, 0x61, 0x6e, 0x74, 0x37, 0x00, 0x04, 0x00, 0x00, 0x00, 
  0x18, 0x00, 0x00, 0x00, 0x01, 0x00, 0x00, 0x00, 0x03, 0x00, 0x00, 0x00, 
  0x04, 0x00, 0x00, 0x00, 0x82, 0xfe, 0xff, 0xff, 0x00, 0x00, 0x00, 0x01, 
  0x10, 0x00, 0x00, 0x00, 0x10, 0x00, 0x00, 0x00, 0x08, 0x00, 0x00, 0x00, 
  0x1c, 0x00, 0x00, 0x00, 0x08, 0xfe, 0xff, 0xff, 0x0f, 0x00, 0x00, 0x00, 
  0x61, 0x72, 0x69, 0x74, 0x68, 0x2e, 0x63, 0x6f, 0x6e, 0x73, 0x74, 0x61, 
  0x6e, 0x74, 0x36, 0x00, 0x04, 0x00, 0x00, 0x00, 0x10, 0x00, 0x00, 0x00, 
  0x01, 0x00, 0x00, 0x00, 0x03, 0x00, 0x00, 0x00, 0x18, 0x00, 0x00, 0x00, 
  0xc2, 0xff, 0xff, 0xff, 0x00, 0x00, 0x00, 0x01, 0x14, 0x00, 0x00, 0x00, 
  0x14, 0x00, 0x00, 0x00, 0x07, 0x00, 0x00, 0x00, 0x00, 0x00, 0x00, 0x02, 
  0x1c, 0x00, 0x00, 0x00, 0x50, 0xfe, 0xff, 0xff, 0x0f, 0x00, 0x00, 0x00, 
  0x61, 0x72, 0x69, 0x74, 0x68, 0x2e, 0x63, 0x6f, 0x6e, 0x73, 0x74, 0x61, 
  0x6e, 0x74, 0x35, 0x00, 0x01, 0x00, 0x00, 0x00, 0x03, 0x00, 0x00, 0x00, 
  0x00, 0x00, 0x16, 0x00, 0x1c, 0x00, 0x18, 0x00, 0x17, 0x00, 0x10, 0x00, 
  0x0c, 0x00, 0x08, 0x00, 0x00, 0x00, 0x00, 0x00, 0x00, 0x00, 0x07, 0x00, 
  0x16, 0x00, 0x00, 0x00, 0x00, 0x00, 0x00, 0x01, 0x14, 0x00, 0x00, 0x00, 
  0x14, 0x00, 0x00, 0x00, 0x06, 0x00, 0x00, 0x00, 0x00, 0x00, 0x00, 0x02, 
  0x1c, 0x00, 0x00, 0x00, 0xa4, 0xfe, 0xff, 0xff, 0x0f, 0x00, 0x00, 0x00, 
  0x61, 0x72, 0x69, 0x74, 0x68, 0x2e, 0x63, 0x6f, 0x6e, 0x73, 0x74, 0x61, 
  0x6e, 0x74, 0x34, 0x00, 0x01, 0x00, 0x00, 0x00, 0x03, 0x00, 0x00, 0x00, 
  0x56, 0xff, 0xff, 0xff, 0x00, 0x00, 0x00, 0x01, 0x10, 0x00, 0x00, 0x00, 
  0x10, 0x00, 0x00, 0x00, 0x05, 0x00, 0x00, 0x00, 0x1c, 0x00, 0x00, 0x00, 
  0xdc, 0xfe, 0xff, 0xff, 0x0f, 0x00, 0x00, 0x00, 0x61, 0x72, 0x69, 0x74, 
  0x68, 0x2e, 0x63, 0x6f, 0x6e, 0x73, 0x74, 0x61, 0x6e, 0x74, 0x33, 0x00, 
  0x01, 0x00, 0x00, 0x00, 0x03, 0x00, 0x00, 0x00, 0x8e, 0xff, 0xff, 0xff, 
  0x00, 0x00, 0x00, 0x01, 0x10, 0x00, 0x00, 0x00, 0x10, 0x00, 0x00, 0x00, 
  0x04, 0x00, 0x00, 0x00, 0x1c, 0x00, 0x00, 0x00, 0x14, 0xff, 0xff, 0xff, 
  0x0f, 0x00, 0x00, 0x00, 0x61, 0x72, 0x69, 0x74, 0x68, 0x2e, 0x63, 0x6f, 
  0x6e, 0x73, 0x74, 0x61, 0x6e, 0x74, 0x32, 0x00, 0x01, 0x00, 0x00, 0x00, 
  0x18, 0x00, 0x00, 0x00, 0xc6, 0xff, 0xff, 0xff, 0x00, 0x00, 0x00, 0x01, 
  0x10, 0x00, 0x00, 0x00, 0x10, 0x00, 0x00, 0x00, 0x03, 0x00, 0x00, 0x00, 
  0x1c, 0x00, 0x00, 0x00, 0x4c, 0xff, 0xff, 0xff, 0x0f, 0x00, 0x00, 0x00, 
  0x61, 0x72, 0x69, 0x74, 0x68, 0x2e, 0x63, 0x6f, 0x6e, 0x73, 0x74, 0x61, 
  0x6e, 0x74, 0x31, 0x00, 0x01, 0x00, 0x00, 0x00, 0x10, 0x00, 0x00, 0x00, 
  0x00, 0x00, 0x16, 0x00, 0x18, 0x00, 0x14, 0x00, 0x00, 0x00, 0x10, 0x00, 
  0x0c, 0x00, 0x08, 0x00, 0x00, 0x00, 0x00, 0x00, 0x00, 0x00, 0x07, 0x00, 
  0x16, 0x00, 0x00, 0x00, 0x00, 0x00, 0x00, 0x01, 0x10, 0x00, 0x00, 0x00, 
  0x10, 0x00, 0x00, 0x00, 0x02, 0x00, 0x00, 0x00, 0x1c, 0x00, 0x00, 0x00, 
  0x9c, 0xff, 0xff, 0xff, 0x0e, 0x00, 0x00, 0x00, 0x61, 0x72, 0x69, 0x74, 
  0x68, 0x2e, 0x63, 0x6f, 0x6e, 0x73, 0x74, 0x61, 0x6e, 0x74, 0x00, 0x00, 
  0x01, 0x00, 0x00, 0x00, 0x18, 0x00, 0x00, 0x00, 0x00, 0x00, 0x16, 0x00, 
  0x1c, 0x00, 0x18, 0x00, 0x00, 0x00, 0x14, 0x00, 0x10, 0x00, 0x0c, 0x00, 
  0x00, 0x00, 0x00, 0x00, 0x08, 0x00, 0x07, 0x00, 0x16, 0x00, 0x00, 0x00, 
  0x00, 0x00, 0x00, 0x01, 0x14, 0x00, 0x00, 0x00, 0x24, 0x00, 0x00, 0x00, 
  0x24, 0x00, 0x00, 0x00, 0x01, 0x00, 0x00, 0x00, 0x44, 0x00, 0x00, 0x00, 
  0x03, 0x00, 0x00, 0x00, 0xff, 0xff, 0xff, 0xff, 0x0a, 0x00, 0x00, 0x00, 
  0x04, 0x00, 0x00, 0x00, 0x04, 0x00, 0x04, 0x00, 0x04, 0x00, 0x00, 0x00, 
  0x20, 0x00, 0x00, 0x00, 0x73, 0x65, 0x72, 0x76, 0x69, 0x6e, 0x67, 0x5f, 
  0x64, 0x65, 0x66, 0x61, 0x75, 0x6c, 0x74, 0x5f, 0x6b, 0x65, 0x72, 0x61, 
  0x73, 0x5f, 0x74, 0x65, 0x6e, 0x73, 0x6f, 0x72, 0x5f, 0x38, 0x3a, 0x30, 
  0x00, 0x00, 0x00, 0x00, 0x03, 0x00, 0x00, 0x00, 0x01, 0x00, 0x00, 0x00, 
  0x0a, 0x00, 0x00, 0x00, 0x04, 0x00, 0x00, 0x00, 0x05, 0x00, 0x00, 0x00, 
  0x50, 0x00, 0x00, 0x00, 0x34, 0x00, 0x00, 0x00, 0x24, 0x00, 0x00, 0x00, 
  0x14, 0x00, 0x00, 0x00, 0x04, 0x00, 0x00, 0x00, 0xd0, 0xff, 0xff, 0xff, 
  0x09, 0x00, 0x00, 0x00, 0x00, 0x00, 0x00, 0x09, 0xdc, 0xff, 0xff, 0xff, 
  0x28, 0x00, 0x00, 0x00, 0x00, 0x00, 0x00, 0x28, 0xe8, 0xff, 0xff, 0xff, 
  0x16, 0x00, 0x00, 0x00, 0x00, 0x00, 0x00, 0x16, 0xf4, 0xff, 0xff, 0xff, 
  0x03, 0x00, 0x00, 0x00, 0x00, 0x00, 0x00, 0x03, 0x0c, 0x00, 0x0c, 0x00, 
  0x0b, 0x00, 0x00, 0x00, 0x00, 0x00, 0x04, 0x00, 0x0c, 0x00, 0x00, 0x00, 
  0x46, 0x00, 0x00, 0x00, 0x00, 0x00, 0x00, 0x46, 
};
const unsigned int temperature_model_len = 12056;

#endif // TEMPERATURE_MODEL_H
